#include "magic_wand_model_data.h"


// We need to keep the data array aligned on some architectures.

#ifdef __has_attribute

#define HAVE_ATTRIBUTE(x) __has_attribute(x)

#else

#define HAVE_ATTRIBUTE(x) 0

#endif

#if HAVE_ATTRIBUTE(aligned) || (defined(__GNUC__) && !defined(__clang__))

#define DATA_ALIGN_ATTRIBUTE __attribute__((aligned(4)))

#else

#define DATA_ALIGN_ATTRIBUTE

#endif


const unsigned char g_magic_wand_model_data[] DATA_ALIGN_ATTRIBUTE = {
    0x08, 0x00, 0x00, 0x00, 0x54, 0x46, 0x4c, 0x33, 0x62, 0xff, 0xff, 0xff,
  0x03, 0x00, 0x00, 0x00, 0x10, 0x00, 0x00, 0x00, 0x24, 0x00, 0x00, 0x00,
  0x78, 0x00, 0x00, 0x00, 0x24, 0x00, 0x00, 0x00, 0x05, 0x00, 0x00, 0x00,
  0x78, 0x05, 0x00, 0x00, 0xb0, 0x04, 0x00, 0x00, 0xe0, 0x02, 0x00, 0x00,
  0x60, 0x02, 0x00, 0x00, 0x54, 0x01, 0x00, 0x00, 0x01, 0x00, 0x00, 0x00,
  0x78, 0x00, 0x00, 0x00, 0x13, 0x00, 0x00, 0x00, 0xd4, 0x2f, 0x00, 0x00,
  0xd0, 0x2f, 0x00, 0x00, 0xdc, 0x2e, 0x00, 0x00, 0x68, 0x2e, 0x00, 0x00,
  0xfc, 0x2d, 0x00, 0x00, 0xac, 0x11, 0x00, 0x00, 0x98, 0x10, 0x00, 0x00,
  0xbc, 0x0e, 0x00, 0x00, 0x60, 0x06, 0x00, 0x00, 0xfc, 0x05, 0x00, 0x00,
  0x78, 0x05, 0x00, 0x00, 0xa8, 0x2f, 0x00, 0x00, 0xa4, 0x2f, 0x00, 0x00,
  0xa0, 0x2f, 0x00, 0x00, 0x9c, 0x2f, 0x00, 0x00, 0x98, 0x2f, 0x00, 0x00,
  0x94, 0x2f, 0x00, 0x00, 0x90, 0x2f, 0x00, 0x00, 0x8c, 0x2f, 0x00, 0x00,
  0x0f, 0x00, 0x00, 0x00, 0x4d, 0x4c, 0x49, 0x52, 0x20, 0x43, 0x6f, 0x6e,
  0x76, 0x65, 0x72, 0x74, 0x65, 0x64, 0x2e, 0x00, 0x00, 0x00, 0x0e, 0x00,
  0x18, 0x00, 0x04, 0x00, 0x08, 0x00, 0x0c, 0x00, 0x10, 0x00, 0x14, 0x00,
  0x0e, 0x00, 0x00, 0x00, 0x14, 0x00, 0x00, 0x00, 0x5c, 0x00, 0x00, 0x00,
  0x60, 0x00, 0x00, 0x00, 0x64, 0x00, 0x00, 0x00, 0x84, 0x00, 0x00, 0x00,
  0x12, 0x00, 0x00, 0x00, 0x04, 0x2f, 0x00, 0x00, 0xa0, 0x2e, 0x00, 0x00,
  0xf8, 0x2d, 0x00, 0x00, 0x98, 0x2d, 0x00, 0x00, 0x30, 0x2d, 0x00, 0x00,
  0xdc, 0x10, 0x00, 0x00, 0xc0, 0x0f, 0x00, 0x00, 0xe4, 0x0d, 0x00, 0x00,
  0xa0, 0x05, 0x00, 0x00, 0x3c, 0x05, 0x00, 0x00, 0xb0, 0x04, 0x00, 0x00,
  0xe8, 0x03, 0x00, 0x00, 0x38, 0x03, 0x00, 0x00, 0xa4, 0x02, 0x00, 0x00,
  0x10, 0x02, 0x00, 0x00, 0x90, 0x01, 0x00, 0x00, 0xfc, 0x00, 0x00, 0x00,
  0x80, 0x00, 0x00, 0x00, 0x01, 0x00, 0x00, 0x00, 0x00, 0x00, 0x00, 0x00,
  0x01, 0x00, 0x00, 0x00, 0x11, 0x00, 0x00, 0x00, 0x08, 0x00, 0x00, 0x00,
  0x1c, 0x04, 0x00, 0x00, 0x58, 0x03, 0x00, 0x00, 0xc8, 0x02, 0x00, 0x00,
  0x24, 0x02, 0x00, 0x00, 0xac, 0x01, 0x00, 0x00, 0x10, 0x01, 0x00, 0x00,
  0x94, 0x00, 0x00, 0x00, 0x10, 0x00, 0x00, 0x00, 0x04, 0x00, 0x00, 0x00,
  0x6d, 0x61, 0x69, 0x6e, 0x00, 0x00, 0x00, 0x00, 0x8e, 0xff, 0xff, 0xff,
  0x00, 0x00, 0x00, 0x09, 0x04, 0x00, 0x00, 0x00, 0x1c, 0x00, 0x00, 0x00,
  0x10, 0x00, 0x00, 0x00, 0x04, 0x00, 0x00, 0x00, 0x4e, 0xd2, 0xff, 0xff,
  0x00, 0x00, 0x80, 0x3f, 0x01, 0x00, 0x00, 0x00, 0x11, 0x00, 0x00, 0x00,
  0x01, 0x00, 0x00, 0x00, 0x10, 0x00, 0x00, 0x00, 0xf6, 0xfb, 0xff, 0xff,
  0x00, 0x00, 0x00, 0x19, 0x01, 0x00, 0x00, 0x00, 0xce, 0xd1, 0xff, 0xff,
  0x10, 0x00, 0x00, 0x00, 0x12, 0x00, 0x00, 0x00, 0x14, 0x00, 0x00, 0x00,
  0x20, 0x00, 0x00, 0x00, 0x02, 0x00, 0x00, 0x00, 0x01, 0x00, 0x00, 0x00,
  0x03, 0x00, 0x00, 0x00, 0x08, 0x00, 0x00, 0x00, 0x49, 0x64, 0x65, 0x6e,
  0x74, 0x69, 0x74, 0x79, 0x00, 0x00, 0x00, 0x00, 0x08, 0xd2, 0xff, 0xff,
  0x00, 0x00, 0x0e, 0x00, 0x18, 0x00, 0x08, 0x00, 0x0c, 0x00, 0x10, 0x00,
  0x07, 0x00, 0x14, 0x00, 0x0e, 0x00, 0x00, 0x00, 0x00, 0x00, 0x00, 0x08,
  0x03, 0x00, 0x00, 0x00, 0x18, 0x00, 0x00, 0x00, 0x0c, 0x00, 0x00, 0x00,
  0x04, 0x00, 0x00, 0x00, 0xdc, 0xd1, 0xff, 0xff, 0x01, 0x00, 0x00, 0x00,
  0x10, 0x00, 0x00, 0x00, 0x03, 0x00, 0x00, 0x00, 0x0f, 0x00, 0x00, 0x00,
  0x05, 0x00, 0x00, 0x00, 0x02, 0x00, 0x00, 0x00, 0x46, 0xd2, 0xff, 0xff,
  0x10, 0x00, 0x00, 0x00, 0x11, 0x00, 0x00, 0x00, 0x14, 0x00, 0x00, 0x00,
  0x30, 0x00, 0x00, 0x00, 0x02, 0x00, 0x00, 0x00, 0x01, 0x00, 0x00, 0x00,
  0x03, 0x00, 0x00, 0x00, 0x1a, 0x00, 0x00, 0x00, 0x73, 0x65, 0x71, 0x75,
  0x65, 0x6e, 0x74, 0x69, 0x61, 0x6c, 0x2f, 0x64, 0x65, 0x6e, 0x73, 0x65,
  0x5f, 0x31, 0x2f, 0x42, 0x69, 0x61, 0x73, 0x41, 0x64, 0x64, 0x00, 0x00,
  0x38, 0xd2, 0xff, 0xff, 0xd6, 0xfd, 0xff, 0xff, 0x00, 0x00, 0x00, 0x08,
  0x03, 0x00, 0x00, 0x00, 0x24, 0x00, 0x00, 0x00, 0x18, 0x00, 0x00, 0x00,
  0x0c, 0x00, 0x00, 0x00, 0x00, 0x00, 0x06, 0x00, 0x08, 0x00, 0x07, 0x00,
  0x06, 0x00, 0x00, 0x00, 0x00, 0x00, 0x00, 0x01, 0x01, 0x00, 0x00, 0x00,
  0x0f, 0x00, 0x00, 0x00, 0x03, 0x00, 0x00, 0x00, 0x0e, 0x00, 0x00, 0x00,
  0x04, 0x00, 0x00, 0x00, 0x01, 0x00, 0x00, 0x00, 0xfe, 0xfc, 0xff, 0xff,
  0x00, 0x00, 0x00, 0x09, 0x01, 0x00, 0x00, 0x00, 0xd6, 0xd2, 0xff, 0xff,
  0x10, 0x00, 0x00, 0x00, 0x10, 0x00, 0x00, 0x00, 0x14, 0x00, 0x00, 0x00,
  0x2c, 0x00, 0x00, 0x00, 0x02, 0x00, 0x00, 0x00, 0x01, 0x00, 0x00, 0x00,
  0x10, 0x00, 0x00, 0x00, 0x15, 0x00, 0x00, 0x00, 0x73, 0x65, 0x71, 0x75,
  0x65, 0x6e, 0x74, 0x69, 0x61, 0x6c, 0x2f, 0x64, 0x65, 0x6e, 0x73, 0x65,
  0x2f, 0x52, 0x65, 0x6c, 0x75, 0x00, 0x00, 0x00, 0x1c, 0xd3, 0xff, 0xff,
  0x00, 0x00, 0x0a, 0x00, 0x10, 0x00, 0x04, 0x00, 0x08, 0x00, 0x0c, 0x00,
  0x0a, 0x00, 0x00, 0x00, 0x02, 0x00, 0x00, 0x00, 0x10, 0x00, 0x00, 0x00,
  0x04, 0x00, 0x00, 0x00, 0x01, 0x00, 0x00, 0x00, 0x0e, 0x00, 0x00, 0x00,
  0x02, 0x00, 0x00, 0x00, 0x0d, 0x00, 0x00, 0x00, 0x03, 0x00, 0x00, 0x00,
  0x7a, 0xfd, 0xff, 0xff, 0x00, 0x00, 0x00, 0x16, 0x01, 0x00, 0x00, 0x00,
  0x52, 0xd3, 0xff, 0xff, 0x10, 0x00, 0x00, 0x00, 0x0f, 0x00, 0x00, 0x00,
  0x14, 0x00, 0x00, 0x00, 0x30, 0x00, 0x00, 0x00, 0x02, 0x00, 0x00, 0x00,
  0x01, 0x00, 0x00, 0x00, 0x70, 0x00, 0x00, 0x00, 0x1a, 0x00, 0x00, 0x00,
  0x73, 0x65, 0x71, 0x75, 0x65, 0x6e, 0x74, 0x69, 0x61, 0x6c, 0x2f, 0x66,
  0x6c, 0x61, 0x74, 0x74, 0x65, 0x6e, 0x2f, 0x52, 0x65, 0x73, 0x68, 0x61,
  0x70, 0x65, 0x00, 0x00, 0x44, 0xd3, 0xff, 0xff, 0xe2, 0xfe, 0xff, 0xff,
  0x00, 0x00, 0x00, 0x05, 0x01, 0x00, 0x00, 0x00, 0x38, 0x00, 0x00, 0x00,
  0x2c, 0x00, 0x00, 0x00, 0x14, 0x00, 0x00, 0x00, 0x00, 0x00, 0x0e, 0x00,
  0x14, 0x00, 0x00, 0x00, 0x10, 0x00, 0x0c, 0x00, 0x08, 0x00, 0x04, 0x00,
  0x0e, 0x00, 0x00, 0x00, 0x03, 0x00, 0x00, 0x00, 0x01, 0x00, 0x00, 0x00,
  0x03, 0x00, 0x00, 0x00, 0x01, 0x00, 0x00, 0x00, 0x01, 0x00, 0x00, 0x00,
  0x0d, 0x00, 0x00, 0x00, 0x01, 0x00, 0x00, 0x00, 0x0c, 0x00, 0x00, 0x00,
  0xe2, 0xd3, 0xff, 0xff, 0x10, 0x00, 0x00, 0x00, 0x0e, 0x00, 0x00, 0x00,
  0x1c, 0x00, 0x00, 0x00, 0x40, 0x00, 0x00, 0x00, 0x04, 0x00, 0x00, 0x00,
  0x01, 0x00, 0x00, 0x00, 0x07, 0x00, 0x00, 0x00, 0x01, 0x00, 0x00, 0x00,
  0x10, 0x00, 0x00, 0x00, 0x22, 0x00, 0x00, 0x00, 0x73, 0x65, 0x71, 0x75,
  0x65, 0x6e, 0x74, 0x69, 0x61, 0x6c, 0x2f, 0x6d, 0x61, 0x78, 0x5f, 0x70,
  0x6f, 0x6f, 0x6c, 0x69, 0x6e, 0x67, 0x32, 0x64, 0x5f, 0x31, 0x2f, 0x4d,
  0x61, 0x78, 0x50, 0x6f, 0x6f, 0x6c, 0x00, 0x00, 0xe4, 0xd3, 0xff, 0xff,
  0xc2, 0xfe, 0xff, 0xff, 0x00, 0x00, 0x00, 0x01, 0x24, 0x00, 0x00, 0x00,
  0x18, 0x00, 0x00, 0x00, 0x04, 0x00, 0x00, 0x00, 0xb4, 0xfe, 0xff, 0xff,
  0x01, 0x00, 0x00, 0x00, 0x01, 0x00, 0x00, 0x00, 0x00, 0x00, 0x00, 0x01,
  0x01, 0x00, 0x00, 0x00, 0x0c, 0x00, 0x00, 0x00, 0x03, 0x00, 0x00, 0x00,
  0x0b, 0x00, 0x00, 0x00, 0x07, 0x00, 0x00, 0x00, 0x09, 0x00, 0x00, 0x00,
  0x72, 0xd4, 0xff, 0xff, 0x10, 0x00, 0x00, 0x00, 0x0d, 0x00, 0x00, 0x00,
  0x1c, 0x00, 0x00, 0x00, 0x2c, 0x00, 0x00, 0x00, 0x04, 0x00, 0x00, 0x00,
  0x01, 0x00, 0x00, 0x00, 0x15, 0x00, 0x00, 0x00, 0x01, 0x00, 0x00, 0x00,
  0x10, 0x00, 0x00, 0x00, 0x0c, 0x00, 0x00, 0x00, 0x74, 0x66, 0x6c, 0x2e,
  0x63, 0x6f, 0x6e, 0x76, 0x5f, 0x32, 0x64, 0x31, 0x00, 0x00, 0x00, 0x00,
  0xb8, 0xd4, 0xff, 0xff, 0x00, 0x00, 0x0e, 0x00, 0x1a, 0x00, 0x08, 0x00,
  0x0c, 0x00, 0x10, 0x00, 0x07, 0x00, 0x14, 0x00, 0x0e, 0x00, 0x00, 0x00,
  0x00, 0x00, 0x00, 0x05, 0x01, 0x00, 0x00, 0x00, 0x3c, 0x00, 0x00, 0x00,
  0x30, 0x00, 0x00, 0x00, 0x14, 0x00, 0x00, 0x00, 0x00, 0x00, 0x0e, 0x00,
  0x18, 0x00, 0x17, 0x00, 0x10, 0x00, 0x0c, 0x00, 0x08, 0x00, 0x04, 0x00,
  0x0e, 0x00, 0x00, 0x00, 0x03, 0x00, 0x00, 0x00, 0x03, 0x00, 0x00, 0x00,
  0x03, 0x00, 0x00, 0x00, 0x03, 0x00, 0x00, 0x00, 0x00, 0x00, 0x00, 0x01,
  0x01, 0x00, 0x00, 0x00, 0x0b, 0x00, 0x00, 0x00, 0x01, 0x00, 0x00, 0x00,
  0x0a, 0x00, 0x00, 0x00, 0x46, 0xff, 0xff, 0xff, 0x00, 0x00, 0x00, 0x11,
  0x01, 0x00, 0x00, 0x00, 0x1e, 0xd5, 0xff, 0xff, 0x10, 0x00, 0x00, 0x00,
  0x0c, 0x00, 0x00, 0x00, 0x1c, 0x00, 0x00, 0x00, 0x40, 0x00, 0x00, 0x00,
  0x04, 0x00, 0x00, 0x00, 0x01, 0x00, 0x00, 0x00, 0x15, 0x00, 0x00, 0x00,
  0x01, 0x00, 0x00, 0x00, 0x08, 0x00, 0x00, 0x00, 0x20, 0x00, 0x00, 0x00,
  0x73, 0x65, 0x71, 0x75, 0x65, 0x6e, 0x74, 0x69, 0x61, 0x6c, 0x2f, 0x6d,
  0x61, 0x78, 0x5f, 0x70, 0x6f, 0x6f, 0x6c, 0x69, 0x6e, 0x67, 0x32, 0x64,
  0x2f, 0x4d, 0x61, 0x78, 0x50, 0x6f, 0x6f, 0x6c, 0x00, 0x00, 0x00, 0x00,
  0x78, 0xd5, 0xff, 0xff, 0x00, 0x00, 0x0e, 0x00, 0x14, 0x00, 0x00, 0x00,
  0x08, 0x00, 0x0c, 0x00, 0x07, 0x00, 0x10, 0x00, 0x0e, 0x00, 0x00, 0x00,
  0x00, 0x00, 0x00, 0x01, 0x30, 0x00, 0x00, 0x00, 0x24, 0x00, 0x00, 0x00,
  0x10, 0x00, 0x00, 0x00, 0x0c, 0x00, 0x10, 0x00, 0x00, 0x00, 0x04, 0x00,
  0x08, 0x00, 0x0f, 0x00, 0x0c, 0x00, 0x00, 0x00, 0x01, 0x00, 0x00, 0x00,
  0x01, 0x00, 0x00, 0x00, 0x00, 0x00, 0x00, 0x01, 0x01, 0x00, 0x00, 0x00,
  0x0a, 0x00, 0x00, 0x00, 0x03, 0x00, 0x00, 0x00, 0x00, 0x00, 0x00, 0x00,
  0x06, 0x00, 0x00, 0x00, 0x08, 0x00, 0x00, 0x00, 0x00, 0x00, 0x0a, 0x00,
  0x0c, 0x00, 0x07, 0x00, 0x00, 0x00, 0x08, 0x00, 0x0a, 0x00, 0x00, 0x00,
  0x00, 0x00, 0x00, 0x03, 0x01, 0x00, 0x00, 0x00, 0xe2, 0xd5, 0xff, 0xff,
  0x10, 0x00, 0x00, 0x00, 0x0b, 0x00, 0x00, 0x00, 0x1c, 0x00, 0x00, 0x00,
  0x28, 0x00, 0x00, 0x00, 0x04, 0x00, 0x00, 0x00, 0x01, 0x00, 0x00, 0x00,
  0x40, 0x00, 0x00, 0x00, 0x03, 0x00, 0x00, 0x00, 0x08, 0x00, 0x00, 0x00,
  0x0b, 0x00, 0x00, 0x00, 0x74, 0x66, 0x6c, 0x2e, 0x63, 0x6f, 0x6e, 0x76,
  0x5f, 0x32, 0x64, 0x00, 0xcc, 0xd5, 0xff, 0xff, 0xc2, 0xd6, 0xff, 0xff,
  0x04, 0x00, 0x00, 0x00, 0x40, 0x00, 0x00, 0x00, 0x4d, 0x54, 0x91, 0x3d,
  0x51, 0x3d, 0xb3, 0x3f, 0x6e, 0x95, 0x24, 0x40, 0x75, 0xef, 0xac, 0xbf,
  0x5a, 0x4d, 0xab, 0x3f, 0x10, 0x52, 0x9f, 0xbf, 0x46, 0xf6, 0x91, 0xbf,
  0x9a, 0x6f, 0x5f, 0xbe, 0x6b, 0x07, 0x1e, 0xbf, 0x02, 0x70, 0xac, 0x3f,
  0x11, 0xa9, 0x86, 0x3e, 0x6a, 0x12, 0x7c, 0xbf, 0xa8, 0x60, 0x80, 0x3f,
  0x5d, 0xc1, 0x54, 0xbe, 0xde, 0xa3, 0xbe, 0xbf, 0x55, 0x96, 0x28, 0x40,
  0x6a, 0xd6, 0xff, 0xff, 0x10, 0x00, 0x00, 0x00, 0x0a, 0x00, 0x00, 0x00,
  0x10, 0x00, 0x00, 0x00, 0x20, 0x00, 0x00, 0x00, 0x01, 0x00, 0x00, 0x00,
  0x10, 0x00, 0x00, 0x00, 0x0d, 0x00, 0x00, 0x00, 0x73, 0x74, 0x64, 0x2e,
  0x63, 0x6f, 0x6e, 0x73, 0x74, 0x61, 0x6e, 0x74, 0x31, 0x00, 0x00, 0x00,
  0x4c, 0xd6, 0xff, 0xff, 0x42, 0xd7, 0xff, 0xff, 0x04, 0x00, 0x00, 0x00,
  0x20, 0x00, 0x00, 0x00, 0x1a, 0xc7, 0xe3, 0xbf, 0xcc, 0x17, 0x3f, 0xc0,
  0x84, 0x0d, 0x1c, 0x3f, 0xa6, 0xb8, 0x0a, 0xbe, 0x97, 0x2c, 0x4f, 0xbd,
  0xcb, 0x7b, 0xb3, 0xbf, 0x1c, 0xc1, 0xfd, 0xbf, 0x15, 0xc5, 0xf6, 0xbf,
  0xca, 0xd6, 0xff, 0xff, 0x10, 0x00, 0x00, 0x00, 0x09, 0x00, 0x00, 0x00,
  0x10, 0x00, 0x00, 0x00, 0x20, 0x00, 0x00, 0x00, 0x01, 0x00, 0x00, 0x00,
  0x08, 0x00, 0x00, 0x00, 0x0c, 0x00, 0x00, 0x00, 0x73, 0x74, 0x64, 0x2e,
  0x63, 0x6f, 0x6e, 0x73, 0x74, 0x61, 0x6e, 0x74, 0x00, 0x00, 0x00, 0x00,
  0xac, 0xd6, 0xff, 0xff, 0xa2, 0xd7, 0xff, 0xff, 0x04, 0x00, 0x00, 0x00,
  0x00, 0x08, 0x00, 0x00, 0x49, 0x29, 0x36, 0xbe, 0xec, 0xd5, 0xc6, 0x3d,
  0xc2, 0x9e, 0x0d, 0xbe, 0xf6, 0xd1, 0x7b, 0x3b, 0x4e, 0x07, 0x75, 0x3e,
  0x90, 0xb4, 0x66, 0xbd, 0x54, 0xa0, 0x8e, 0xbe, 0x03, 0x8a, 0xe0, 0xbe,
  0xc8, 0x7a, 0x8f, 0xbd, 0x9a, 0xc9, 0xa8, 0xbc, 0x54, 0x2e, 0xd0, 0x3e,
  0x3a, 0xeb, 0xba, 0x3d, 0x2a, 0xc0, 0x6e, 0x3d, 0x65, 0x86, 0x3d, 0x3e,
  0xe6, 0x54, 0x45, 0xbe, 0x5b, 0xba, 0xa4, 0xbe, 0xa5, 0x8a, 0x1c, 0xbe,
  0xb2, 0x9f, 0x1a, 0x3d, 0x10, 0xcc, 0xde, 0x3c, 0xd3, 0x71, 0xee, 0x3e,
  0xb6, 0x18, 0x5b, 0x3e, 0x4f, 0xe4, 0x7c, 0x3e, 0x81, 0x21, 0x2e, 0xbe,
  0xd3, 0xab, 0xb8, 0xbe, 0x36, 0x5a, 0x0f, 0xbd, 0xbc, 0x30, 0xb8, 0x3d,
  0x5d, 0xfb, 0xda, 0x3d, 0xd2, 0x11, 0x4f, 0x3d, 0xfd, 0xc4, 0x3f, 0xbe,
  0x94, 0xcd, 0x1d, 0x3e, 0x0a, 0x58, 0x35, 0xbe, 0xea, 0x64, 0xbf, 0xbe,
  0x7b, 0xc3, 0x0e, 0x3e, 0x2b, 0x65, 0x85, 0xbd, 0x90, 0x0b, 0x6b, 0xbe,
  0xaa, 0x9d, 0x22, 0xbf, 0xa2, 0xed, 0xf5, 0x3d, 0x9b, 0xd7, 0x02, 0xbf,
  0x6f, 0x1c, 0x43, 0xbe, 0x9c, 0xe6, 0x0d, 0xbe, 0x3d, 0xb5, 0x75, 0xbe,
  0x73, 0xda, 0x0e, 0xbe, 0xef, 0x50, 0xd6, 0xbc, 0x1b, 0xc5, 0x29, 0xbf,
  0x09, 0xaa, 0x1b, 0xbe, 0x26, 0x4b, 0x4d, 0x3e, 0x69, 0x88, 0x75, 0xbd,
  0x87, 0x0a, 0xd4, 0xbd, 0x01, 0xc3, 0x3b, 0xba, 0x65, 0x8e, 0x2d, 0xbe,
  0xd7, 0x64, 0xd9, 0xbd, 0x64, 0xb6, 0x9a, 0xbd, 0x2f, 0xbb, 0x09, 0xbb,
  0x12, 0x1e, 0xa8, 0x3e, 0xd3, 0x13, 0x51, 0x3e, 0x37, 0x1a, 0xda, 0x3c,
  0xda, 0xd7, 0x76, 0x3e, 0x22, 0x21, 0x0e, 0xbe, 0xe9, 0xe9, 0x12, 0xbe,
  0x4b, 0x4f, 0xf2, 0x3e, 0xab, 0x07, 0x70, 0x3c, 0xd4, 0x01, 0x92, 0x3d,
  0xcb, 0x57, 0xaa, 0x3d, 0x7d, 0x25, 0xc1, 0x3d, 0x73, 0xc4, 0x8c, 0xbd,
  0x5c, 0x3a, 0x53, 0xbe, 0x28, 0x51, 0x80, 0xbd, 0x2c, 0x71, 0xad, 0x3d,
  0x88, 0x75, 0x22, 0xbe, 0xc1, 0xdf, 0x38, 0x3b, 0xcc, 0x0d, 0x26, 0xbc,
  0xa6, 0x90, 0x20, 0xbd, 0x60, 0x5a, 0x1b, 0x3d, 0x30, 0xf6, 0xee, 0xbd,
  0x46, 0x60, 0xd2, 0x3c, 0xf1, 0xd5, 0xae, 0x3e, 0x64, 0xed, 0x0b, 0x3b,
  0xd3, 0x87, 0xf5, 0xbd, 0x59, 0x27, 0x53, 0xbd, 0x06, 0x8b, 0x8c, 0x3e,
  0x2c, 0x77, 0x06, 0x3e, 0xd5, 0xdd, 0xa4, 0xbc, 0x3d, 0x50, 0xa5, 0xbc,
  0x76, 0x6e, 0xb6, 0x3e, 0x6a, 0x3d, 0x28, 0xbe, 0xe7, 0xcc, 0xb9, 0xbd,
  0xcf, 0x8a, 0xc6, 0xbc, 0xfc, 0x67, 0xab, 0xbe, 0xc8, 0xf9, 0xc7, 0xbe,
  0x4e, 0x80, 0xab, 0xbe, 0xf4, 0x37, 0xeb, 0xbd, 0x72, 0x42, 0xcd, 0xbe,
  0xcd, 0xb7, 0xbd, 0xbe, 0xfd, 0x2b, 0x72, 0xbe, 0x88, 0xdb, 0xc9, 0xbe,
  0xa4, 0xfc, 0x76, 0xbe, 0x17, 0xa2, 0x19, 0xbe, 0xf9, 0xb6, 0x22, 0xbd,
  0x33, 0xb6, 0xca, 0xbe, 0x75, 0x88, 0xd3, 0xbe, 0x72, 0x0f, 0xf5, 0xbe,
  0x87, 0x5e, 0xa1, 0xbd, 0x51, 0xfd, 0xa9, 0x3c, 0x83, 0x90, 0xc2, 0x3d,
  0xcb, 0x5f, 0xd9, 0x3d, 0xa7, 0xd0, 0xb9, 0x3e, 0x28, 0x95, 0x06, 0xbf,
  0x85, 0x80, 0xe9, 0xbe, 0x81, 0xca, 0x74, 0xbf, 0xdf, 0x3a, 0x9c, 0x3e,
  0xca, 0xf6, 0x21, 0x3d, 0x4c, 0x8f, 0x61, 0x3d, 0x0b, 0xa1, 0xed, 0xbe,
  0x6a, 0xa7, 0x91, 0x3e, 0x06, 0x90, 0xa1, 0x3e, 0x52, 0x1c, 0x2f, 0x3e,
  0x11, 0xbc, 0x86, 0xbf, 0xe2, 0xb9, 0x74, 0x3e, 0x20, 0x00, 0x35, 0xbe,
  0x68, 0x9e, 0x2c, 0xbd, 0x4c, 0x35, 0x8f, 0xbc, 0x51, 0x99, 0x64, 0x3d,
  0x81, 0x95, 0x02, 0x3e, 0xb1, 0x9e, 0x15, 0x3c, 0x20, 0x7b, 0x50, 0x3c,
  0x37, 0x0c, 0x37, 0xbd, 0x6d, 0x02, 0x67, 0xbd, 0x72, 0x04, 0xba, 0xbd,
  0x7c, 0x55, 0xd6, 0xbd, 0x5f, 0x01, 0xa0, 0xbe, 0x30, 0x1d, 0x7f, 0xbd,
  0xdd, 0xa9, 0x6c, 0x3b, 0x7e, 0x38, 0x08, 0xbe, 0x61, 0x50, 0x82, 0xbe,
  0x00, 0x0f, 0xf5, 0xbd, 0x42, 0x88, 0xfc, 0xbd, 0xa5, 0x09, 0x23, 0xbd,
  0xc9, 0x76, 0xf3, 0xbd, 0xcc, 0x2e, 0xcb, 0x3d, 0xb9, 0xa8, 0x82, 0xbe,
  0xb4, 0xe7, 0xf4, 0x3c, 0x33, 0xe1, 0x9c, 0xbe, 0x9c, 0x8f, 0x4a, 0xbd,
  0xda, 0xe0, 0x8f, 0xbd, 0x71, 0x62, 0x68, 0x3d, 0x81, 0x32, 0x47, 0xbe,
  0x26, 0xa8, 0x4a, 0x3d, 0x0f, 0x25, 0xe8, 0xbe, 0xc4, 0xfd, 0x0a, 0x3e,
  0xfc, 0xac, 0x30, 0xbe, 0xf9, 0xcb, 0x12, 0xbe, 0x51, 0xa5, 0x8a, 0xbd,
  0xc5, 0x1a, 0xd0, 0xbd, 0x45, 0x32, 0x0d, 0xbe, 0xdf, 0xed, 0x66, 0x3e,
  0xe1, 0xcc, 0x61, 0x3e, 0xda, 0x74, 0x25, 0xbd, 0xc2, 0xa7, 0xaa, 0x3e,
  0x88, 0x02, 0x85, 0x3e, 0xd3, 0xc9, 0x9e, 0x3d, 0xf0, 0x62, 0x36, 0xbf,
  0xcb, 0xa9, 0x1b, 0xbf, 0x3f, 0x52, 0x19, 0xbe, 0x7d, 0x0c, 0xea, 0xbe,
  0xf9, 0x21, 0x24, 0xbf, 0xda, 0xd5, 0x17, 0x3e, 0x01, 0x59, 0x69, 0xbd,
  0x30, 0xf8, 0x04, 0x3e, 0xe4, 0x21, 0xd7, 0xbe, 0x79, 0xb5, 0x3b, 0x3f,
  0xde, 0x01, 0xa0, 0xbb, 0x60, 0x40, 0x1c, 0xbe, 0x63, 0x57, 0xa8, 0xbe,
  0xf8, 0x46, 0x7b, 0xbd, 0xb3, 0x5e, 0x90, 0xbd, 0x08, 0x23, 0x04, 0x3d,
  0x50, 0x9a, 0x65, 0xbd, 0x26, 0x50, 0xf7, 0x3e, 0x17, 0xb3, 0xd7, 0x3c,
  0x02, 0xa4, 0xf2, 0xbd, 0x8a, 0xbf, 0x09, 0x3d, 0x28, 0x4f, 0x31, 0x3d,
  0x36, 0x42, 0xea, 0xbc, 0x54, 0xca, 0xc7, 0xbc, 0xc0, 0x45, 0x66, 0x3d,
  0x53, 0xf8, 0x1c, 0x3e, 0x02, 0xcc, 0x4f, 0xbd, 0x5a, 0x6e, 0x9c, 0xbd,
  0x94, 0xf2, 0x3d, 0x3e, 0x96, 0x1d, 0xf6, 0xbd, 0x18, 0xa7, 0x8f, 0xbc,
  0x2c, 0x21, 0xb8, 0xbc, 0x48, 0x13, 0x61, 0x3e, 0xe2, 0xb5, 0x05, 0x3e,
  0xac, 0xaa, 0x30, 0xbe, 0x09, 0xba, 0x5f, 0x3d, 0x4e, 0x46, 0x18, 0x3e,
  0xad, 0xaa, 0xa1, 0xbd, 0xae, 0xc8, 0x41, 0xbd, 0x73, 0x8f, 0xac, 0xbd,
  0x63, 0x76, 0xa7, 0xbc, 0xe3, 0x18, 0xf5, 0xbd, 0x93, 0x83, 0x1b, 0xbe,
  0x13, 0xcc, 0x8d, 0x3c, 0x87, 0xcf, 0x34, 0x3d, 0x30, 0x15, 0x50, 0xbe,
  0x26, 0x3f, 0x01, 0xbc, 0x1d, 0x19, 0xc8, 0xbd, 0x50, 0x23, 0x97, 0x3d,
  0xe1, 0x02, 0x96, 0xbd, 0x58, 0xd2, 0x47, 0xbe, 0x85, 0x0b, 0x86, 0x3c,
  0x6c, 0x1a, 0x0f, 0x3e, 0x91, 0xd5, 0x4a, 0xbe, 0x47, 0x03, 0x05, 0xbd,
  0x4a, 0x52, 0x6f, 0xbd, 0x1d, 0x85, 0xee, 0xbc, 0x61, 0x38, 0xf0, 0x3c,
  0xa1, 0x19, 0xbc, 0x3d, 0xd7, 0xcd, 0x90, 0x3e, 0x4d, 0x7f, 0x9c, 0x3d,
  0xf5, 0x1d, 0x44, 0xbe, 0xf8, 0xc4, 0x82, 0x3c, 0xfb, 0xe9, 0x61, 0xbd,
  0xd8, 0x49, 0xcf, 0xbb, 0x15, 0x40, 0xae, 0x3e, 0x28, 0x60, 0x57, 0xbd,
  0x78, 0x46, 0x00, 0x3e, 0x6c, 0x79, 0x29, 0xbd, 0xb2, 0x38, 0x79, 0xbe,
  0x1c, 0x11, 0x67, 0xbd, 0x4c, 0x6c, 0x3a, 0xbe, 0xdd, 0x97, 0x2d, 0x3a,
  0x2f, 0x6f, 0x39, 0x3d, 0x34, 0x18, 0x47, 0x3c, 0x25, 0x4c, 0x17, 0x3e,
  0x85, 0xe3, 0x92, 0xbb, 0x12, 0x94, 0xc9, 0xbe, 0x6e, 0x0b, 0x52, 0xbe,
  0x64, 0xd6, 0x82, 0xbe, 0xf2, 0x80, 0x1f, 0xbd, 0x34, 0xbd, 0x29, 0x3e,
  0x9a, 0x27, 0x87, 0x3e, 0xe6, 0xa1, 0xea, 0x3e, 0x4d, 0xa1, 0xe2, 0x3d,
  0x8b, 0x14, 0x65, 0xbe, 0x66, 0xf0, 0xdd, 0xbd, 0x62, 0x8d, 0x95, 0xbe,
  0x27, 0x1b, 0x85, 0x3c, 0xeb, 0x8a, 0x71, 0x3d, 0xca, 0x73, 0xed, 0x3d,
  0xcd, 0x6f, 0x3a, 0x3e, 0x28, 0x20, 0x0f, 0xbe, 0x1a, 0xb7, 0xc4, 0xbd,
  0x92, 0xe3, 0x27, 0xbe, 0x69, 0xeb, 0x88, 0xbe, 0xdc, 0xcc, 0x3c, 0xbe,
  0x5a, 0x1e, 0x64, 0x3e, 0xed, 0xa1, 0x46, 0x3d, 0xf7, 0x67, 0x85, 0x3d,
  0xab, 0x91, 0x7c, 0xbf, 0x3f, 0x2f, 0x06, 0x3f, 0x0b, 0x16, 0x94, 0xbe,
  0x77, 0xca, 0xc7, 0x3d, 0x1e, 0x6a, 0x7b, 0xbf, 0x56, 0xc4, 0x25, 0x3e,
  0xfa, 0xf1, 0x70, 0x3e, 0x4f, 0x02, 0xc3, 0xbc, 0xcd, 0xb4, 0x4a, 0xbf,
  0x1b, 0xb7, 0x96, 0xbe, 0xaf, 0x6e, 0x8a, 0xbf, 0x63, 0x47, 0x30, 0xbe,
  0x60, 0xe3, 0x1c, 0xbd, 0x39, 0xd6, 0xe7, 0x3d, 0x58, 0xff, 0x69, 0x3d,
  0x41, 0x1c, 0xb0, 0xbd, 0xee, 0xe1, 0x89, 0xbd, 0xbb, 0x3e, 0x72, 0xbe,
  0x31, 0xb7, 0x36, 0xbe, 0x2e, 0x88, 0x8f, 0xbe, 0x0b, 0x9c, 0x18, 0x3e,
  0x96, 0xdf, 0x2e, 0x3d, 0xb2, 0x21, 0x63, 0xbd, 0xfe, 0x64, 0x2f, 0x3e,
  0x0f, 0x1f, 0xb8, 0x3d, 0xed, 0x3e, 0x64, 0xbe, 0x38, 0x10, 0x89, 0x3d,
  0x57, 0x2b, 0x84, 0xbe, 0x0b, 0x5b, 0x81, 0xbe, 0x2a, 0x4c, 0xbe, 0xbe,
  0x85, 0x74, 0xa5, 0xbe, 0xa6, 0x3f, 0xe1, 0xbe, 0x58, 0x5c, 0xf3, 0xbe,
  0x8d, 0x53, 0xd4, 0xbe, 0x7b, 0x38, 0x57, 0xbf, 0x98, 0xce, 0xc9, 0xbe,
  0x2c, 0x7d, 0x9e, 0xbe, 0x24, 0xd5, 0xb3, 0xbd, 0x01, 0x76, 0xf1, 0x3e,
  0x9a, 0xd5, 0x41, 0xbc, 0xa5, 0x0c, 0x5b, 0xbe, 0x44, 0xf5, 0x54, 0x3e,
  0xbb, 0x6a, 0x81, 0x3d, 0xbb, 0xfa, 0x2e, 0x3e, 0xdd, 0xf1, 0x34, 0xbe,
  0x28, 0x77, 0xf8, 0xbd, 0x34, 0x5f, 0x8c, 0x3d, 0x28, 0x37, 0x0b, 0x3e,
  0x3f, 0x0c, 0x01, 0xbe, 0xca, 0xf3, 0x4c, 0x3e, 0x29, 0xd2, 0x11, 0x3c,
  0x43, 0x78, 0xc1, 0x3d, 0x22, 0x60, 0x74, 0xbd, 0xdc, 0x85, 0x32, 0x3d,
  0x84, 0xa8, 0x87, 0x3d, 0x1d, 0xdc, 0x1e, 0x3e, 0xa3, 0x89, 0x27, 0x3c,
  0x43, 0x9c, 0x33, 0x3d, 0x1f, 0xc7, 0x87, 0x3c, 0x7f, 0x7b, 0xc3, 0xbc,
  0x48, 0x86, 0x77, 0xbc, 0x51, 0xc2, 0x8f, 0xbd, 0xf9, 0x8d, 0x6d, 0x3e,
  0x9c, 0x16, 0xd2, 0x3e, 0xe1, 0x5c, 0xc1, 0xbd, 0x2e, 0x1a, 0xff, 0xba,
  0xeb, 0xd1, 0xf4, 0xbd, 0x83, 0xfb, 0x04, 0xbe, 0x02, 0x61, 0xa5, 0xbd,
  0x3f, 0xa6, 0x2d, 0xbe, 0x99, 0x5e, 0x26, 0x3d, 0xd4, 0x40, 0x0e, 0xbe,
  0x42, 0xd8, 0x82, 0xbb, 0xbd, 0xc5, 0x36, 0xbe, 0xfe, 0x91, 0x81, 0x3b,
  0x64, 0x9f, 0xbe, 0xbd, 0xe9, 0x2b, 0xd3, 0x3d, 0x4e, 0x74, 0x8d, 0xbd,
  0x5f, 0x0c, 0x9a, 0x3e, 0x1d, 0x22, 0xa7, 0x3e, 0x58, 0x80, 0xaa, 0x3d,
  0x5b, 0x7a, 0xc5, 0x3b, 0x2a, 0x44, 0x0d, 0xbd, 0x74, 0x29, 0xbc, 0xbd,
  0xb9, 0xdc, 0x52, 0xbd, 0xde, 0xde, 0x1f, 0x3e, 0x12, 0x1f, 0xb9, 0x3d,
  0xdf, 0xed, 0xea, 0x3c, 0x42, 0x73, 0x6c, 0xbd, 0xab, 0x74, 0xa9, 0x3e,
  0x58, 0xaa, 0x4c, 0xbd, 0xae, 0x6e, 0x09, 0x3e, 0x01, 0x2a, 0x1b, 0x3f,
  0x80, 0x7a, 0x3b, 0x3f, 0xf7, 0x22, 0xa8, 0xbe, 0x4d, 0xa4, 0x72, 0xbc,
  0xa2, 0x1b, 0x51, 0x3e, 0xff, 0x33, 0x96, 0xbd, 0x0a, 0x25, 0x8f, 0xbd,
  0x14, 0x2f, 0xc4, 0xbd, 0x53, 0x85, 0xa9, 0x3b, 0x27, 0x57, 0x16, 0x3d,
  0x87, 0x3e, 0x0e, 0xbf, 0xd7, 0x94, 0xbc, 0xbe, 0xe8, 0x62, 0x39, 0x3d,
  0xd7, 0x35, 0xba, 0x3d, 0xf9, 0x6b, 0x2d, 0xbd, 0x03, 0x9e, 0xa8, 0xbd,
  0xb3, 0x33, 0xa8, 0xbe, 0x29, 0xe7, 0xf3, 0xbd, 0xbe, 0x45, 0x0d, 0xbe,
  0x8e, 0x88, 0xc4, 0xbe, 0xe2, 0x34, 0x50, 0xbe, 0xbb, 0xb1, 0x22, 0x3e,
  0x28, 0x64, 0xf0, 0x3c, 0xe6, 0xf4, 0xbf, 0x3d, 0x5c, 0x2b, 0x01, 0xbf,
  0x56, 0xe3, 0x1f, 0xbf, 0x71, 0x15, 0x27, 0xbe, 0x90, 0x74, 0x93, 0xbe,
  0x67, 0x04, 0x29, 0xbf, 0x5a, 0x6a, 0x90, 0x3e, 0x1f, 0x28, 0xe9, 0x3c,
  0x7f, 0x38, 0xa1, 0x3c, 0xb1, 0x1c, 0x7b, 0xbe, 0x8e, 0xfb, 0x05, 0xbf,
  0x84, 0x1d, 0x59, 0xbe, 0xfa, 0xe6, 0xf0, 0xbe, 0x40, 0x31, 0x8d, 0xbe,
  0xa0, 0xe8, 0xdc, 0xbd, 0xf5, 0x02, 0x67, 0xbd, 0x1d, 0xd5, 0x50, 0xbd,
  0x62, 0x87, 0xd1, 0xbe, 0xd6, 0x5d, 0x9a, 0xbe, 0x82, 0x82, 0x4d, 0x3e,
  0x6b, 0x3a, 0xbc, 0x3d, 0xf0, 0xfb, 0x14, 0xbe, 0xcf, 0xa4, 0x69, 0xbd,
  0x44, 0xbd, 0xb4, 0xbd, 0x94, 0xac, 0x86, 0xbd, 0x5f, 0x7b, 0xed, 0xbd,
  0x6a, 0x7c, 0xf3, 0xbd, 0xaa, 0xca, 0x71, 0x3e, 0x37, 0xe8, 0x76, 0x3e,
  0xfb, 0x14, 0x0a, 0xbd, 0xe5, 0x66, 0x69, 0x3d, 0xc3, 0x59, 0xc8, 0x3d,
  0x4c, 0xc9, 0x92, 0x3d, 0xae, 0x18, 0x17, 0x3d, 0xc3, 0x52, 0x9b, 0xbd,
  0x35, 0x58, 0xcf, 0x3e, 0xb7, 0x3b, 0xb8, 0x3d, 0x73, 0xae, 0xbe, 0x3e,
  0x6c, 0xae, 0x20, 0x3d, 0xeb, 0xa4, 0x04, 0x3e, 0x66, 0x2f, 0x90, 0x3e,
  0x02, 0x1a, 0x44, 0xbf, 0x96, 0xed, 0x01, 0x3f, 0xd7, 0xc6, 0xb9, 0x3e,
  0x41, 0x0e, 0x05, 0x3e, 0xd9, 0x28, 0x4c, 0xbf, 0x7a, 0x76, 0x77, 0x3d,
  0x84, 0xbd, 0x35, 0xbf, 0x33, 0x2a, 0x5b, 0xba, 0x1c, 0x86, 0xb9, 0xbe,
  0xe2, 0xd1, 0x22, 0x3e, 0xd4, 0xac, 0x94, 0x3d, 0xb9, 0xc7, 0x0e, 0xbe,
  0x8e, 0x0c, 0x64, 0xbe, 0x43, 0x65, 0xb6, 0xbe, 0x3a, 0x73, 0xa4, 0xbe,
  0x67, 0x38, 0x86, 0xbe, 0x7b, 0xa8, 0x51, 0xbd, 0x74, 0x14, 0x3d, 0xbd,
  0x5d, 0x45, 0x4a, 0xbe, 0x8d, 0x44, 0x4e, 0x3e, 0xd5, 0xec, 0x67, 0x3c,
  0xd5, 0x78, 0x8a, 0xbc, 0x8e, 0x94, 0x2c, 0x3d, 0xd8, 0x3c, 0x9c, 0xbe,
  0xb5, 0xe6, 0x1d, 0x3e, 0xfa, 0x73, 0x3a, 0x3d, 0xf0, 0x29, 0x94, 0xbe,
  0x5b, 0xf3, 0xb9, 0x3e, 0x4c, 0xb3, 0x0a, 0xbc, 0x4f, 0xe7, 0x17, 0xbe,
  0xa1, 0xad, 0x3c, 0x3e, 0x0b, 0x7f, 0xd3, 0xbd, 0x04, 0xb4, 0x13, 0x3c,
  0xd9, 0xe9, 0x34, 0xbe, 0xfc, 0x2c, 0xeb, 0xbe, 0x17, 0xe2, 0x27, 0xbf,
  0x8e, 0x85, 0x6e, 0xbe, 0x67, 0x42, 0x2a, 0xbd, 0x47, 0xd8, 0xa0, 0x3c,
  0xce, 0xe1, 0x84, 0xbd, 0xe9, 0x5e, 0x15, 0x3f, 0x6f, 0x6f, 0x02, 0x3e,
  0x71, 0xb9, 0x28, 0xbf, 0x8e, 0x86, 0xcc, 0xbe, 0x7b, 0xdf, 0xd1, 0xbe,
  0xad, 0x7a, 0x5c, 0x3d, 0xd3, 0xac, 0x4f, 0x3e, 0x48, 0x1f, 0x84, 0x3d,
  0x19, 0x2f, 0x36, 0xbe, 0x96, 0xd0, 0x99, 0xbd, 0xbf, 0x69, 0x3e, 0xbe,
  0xad, 0x4e, 0x8a, 0x3e, 0xcf, 0x9e, 0xe5, 0xbe, 0x9c, 0xf4, 0x0b, 0x3f,
  0x2c, 0xc0, 0x0a, 0xbe, 0x0f, 0xa4, 0xe9, 0xbd, 0x0f, 0x29, 0x82, 0xbf,
  0x61, 0x3b, 0x76, 0x3e, 0xaa, 0xe7, 0x8d, 0x3e, 0x17, 0x16, 0xee, 0xbd,
  0xda, 0x79, 0x5f, 0xbf, 0x1b, 0x7e, 0xd0, 0xbd, 0xa7, 0x4c, 0x81, 0xbe,
  0x15, 0x5e, 0xd3, 0xbd, 0xb8, 0xf0, 0x7c, 0xbd, 0x46, 0xcf, 0x3a, 0xbe,
  0xda, 0xb7, 0x53, 0x3d, 0x5a, 0x9e, 0xe5, 0xbd, 0x06, 0x71, 0xf2, 0xbd,
  0x68, 0xe9, 0x58, 0xbe, 0xb7, 0xf0, 0x90, 0xbd, 0xf2, 0x41, 0x3c, 0xbd,
  0x89, 0x48, 0xec, 0xbc, 0x28, 0x56, 0xd3, 0xbe, 0x5d, 0x0f, 0x63, 0x3e,
  0x45, 0x21, 0xbf, 0xbe, 0x03, 0x27, 0x9b, 0xbe, 0x31, 0x3c, 0x67, 0xbe,
  0xac, 0x3c, 0x8a, 0xbd, 0x55, 0xd8, 0x0e, 0xbc, 0x8d, 0xbe, 0xa9, 0xbd,
  0x54, 0xe5, 0x7d, 0x3d, 0xac, 0x9a, 0x0b, 0xbe, 0x25, 0x1b, 0xdf, 0x3c,
  0x28, 0x69, 0xa1, 0xbd, 0xd1, 0xfb, 0xae, 0xbe, 0x37, 0x05, 0x0c, 0xbe,
  0xb6, 0xa8, 0x10, 0xbb, 0x9e, 0x1f, 0x14, 0x3e, 0x18, 0x31, 0xb4, 0xbe,
  0xb8, 0xd5, 0x9b, 0x3d, 0x85, 0xe4, 0xfb, 0xbd, 0x85, 0xcf, 0x70, 0xbd,
  0x86, 0x74, 0xe1, 0xbe, 0x47, 0x6c, 0x27, 0xbe, 0x76, 0x38, 0x8c, 0x3d,
  0x0a, 0xdf, 0xff, 0xff, 0x10, 0x00, 0x00, 0x00, 0x08, 0x00, 0x00, 0x00,
  0x1c, 0x00, 0x00, 0x00, 0x38, 0x00, 0x00, 0x00, 0x04, 0x00, 0x00, 0x00,
  0x10, 0x00, 0x00, 0x00, 0x04, 0x00, 0x00, 0x00, 0x01, 0x00, 0x00, 0x00,
  0x08, 0x00, 0x00, 0x00, 0x1a, 0x00, 0x00, 0x00, 0x73, 0x65, 0x71, 0x75,
  0x65, 0x6e, 0x74, 0x69, 0x61, 0x6c, 0x2f, 0x63, 0x6f, 0x6e, 0x76, 0x32,
  0x64, 0x5f, 0x31, 0x2f, 0x43, 0x6f, 0x6e, 0x76, 0x32, 0x44, 0x00, 0x00,
  0x04, 0xdf, 0xff, 0xff, 0xfa, 0xdf, 0xff, 0xff, 0x04, 0x00, 0x00, 0x00,
  0x80, 0x01, 0x00, 0x00, 0xd7, 0xef, 0xb2, 0xbe, 0x22, 0xa2, 0x3f, 0xbe,
  0x99, 0x38, 0x79, 0x3c, 0xea, 0xd3, 0x97, 0x3d, 0x0a, 0xd3, 0x38, 0xbe,
  0xbf, 0xd9, 0xc4, 0xbd, 0xd3, 0xc2, 0x89, 0x3d, 0x23, 0x3d, 0x29, 0xbe,
  0x5a, 0x9e, 0x3f, 0x3e, 0x91, 0x3c, 0x49, 0xbe, 0x82, 0x5c, 0xcc, 0x3d,
  0x25, 0xd9, 0x78, 0xbe, 0xec, 0x33, 0xec, 0xbe, 0xa8, 0x9d, 0xa0, 0x3e,
  0xd1, 0x42, 0x48, 0xbd, 0x14, 0x07, 0xf2, 0xbe, 0x35, 0x84, 0x0d, 0x3d,
  0xfd, 0x11, 0x20, 0xbd, 0x15, 0x13, 0xd5, 0x3d, 0xe7, 0x2c, 0xa9, 0xbe,
  0x1d, 0x5c, 0xbf, 0xbc, 0xd1, 0x18, 0xf0, 0x3e, 0xd4, 0x3c, 0x25, 0xbe,
  0x89, 0xfc, 0xb1, 0xbb, 0x97, 0x57, 0x59, 0x3d, 0xf3, 0xf7, 0x8d, 0xbc,
  0x66, 0xb1, 0x1c, 0xbe, 0x68, 0x58, 0x15, 0x3f, 0xa7, 0xcf, 0x85, 0x3e,
  0x1d, 0x5c, 0xfb, 0xbe, 0x7e, 0x08, 0x0d, 0x3e, 0x83, 0x25, 0x76, 0xbe,
  0x21, 0xf5, 0x96, 0x3e, 0x90, 0xd2, 0x49, 0x3d, 0xb6, 0xa5, 0x1e, 0xbd,
  0xf8, 0x40, 0xdd, 0xbd, 0xe7, 0xfc, 0x16, 0xbe, 0x08, 0x6c, 0x65, 0xbe,
  0xd8, 0xd4, 0x3b, 0xbe, 0x34, 0x59, 0xd0, 0xbe, 0x9f, 0xf2, 0xc5, 0x3e,
  0xb1, 0x55, 0x27, 0x3e, 0xa5, 0x4f, 0xef, 0x3d, 0xa5, 0x1c, 0x7f, 0xbe,
  0x6a, 0x8c, 0x85, 0xbe, 0xa7, 0x0b, 0x6a, 0xbe, 0xe2, 0x7f, 0x4d, 0xbd,
  0x67, 0x04, 0xb6, 0xbb, 0xfe, 0x1d, 0xbf, 0xbe, 0x9d, 0x8b, 0x16, 0xbd,
  0x18, 0x1d, 0x05, 0xbe, 0xac, 0xb8, 0xad, 0x3d, 0xa4, 0x63, 0x8b, 0xbd,
  0x04, 0x8b, 0x8d, 0xbe, 0xcc, 0x08, 0x94, 0x3e, 0xb4, 0xc5, 0xad, 0xbd,
  0x5b, 0x6d, 0x3b, 0xbe, 0x76, 0x30, 0x8a, 0xbc, 0x42, 0xff, 0x59, 0xbd,
  0x33, 0xc6, 0xe0, 0x3e, 0x20, 0x37, 0x3c, 0xbe, 0x74, 0x2a, 0x42, 0xbe,
  0x8c, 0x44, 0xf4, 0x3d, 0x4a, 0x20, 0xa6, 0x3e, 0x2c, 0x5d, 0x15, 0xbe,
  0xaa, 0x59, 0x4e, 0xbe, 0x33, 0x52, 0xd9, 0xbd, 0x09, 0xa2, 0x52, 0x3e,
  0xb0, 0x39, 0xab, 0xbe, 0xf1, 0xa5, 0xa0, 0xbe, 0xb9, 0x3d, 0xff, 0x3d,
  0x56, 0xa9, 0xb9, 0xbe, 0x5a, 0xba, 0x0c, 0xbc, 0xa9, 0x80, 0x81, 0xbd,
  0x51, 0x93, 0x7b, 0xbe, 0x20, 0x1e, 0xa5, 0x3c, 0x81, 0x64, 0x1a, 0xbc,
  0x61, 0x65, 0x7f, 0x3d, 0x19, 0xcd, 0x0a, 0xbb, 0xc3, 0x78, 0x2e, 0x3d,
  0x48, 0xb0, 0x47, 0x3e, 0x4c, 0x7e, 0xe1, 0xbd, 0x38, 0x04, 0x8e, 0xbd,
  0x3a, 0xc1, 0xcb, 0x3d, 0x4e, 0x90, 0x51, 0x3d, 0x95, 0xc2, 0x64, 0x3c,
  0x8c, 0x14, 0xc6, 0x3c, 0x1a, 0x59, 0x99, 0x3c, 0x34, 0x8f, 0xc5, 0x3d,
  0xc5, 0xf2, 0x0e, 0xbd, 0xb5, 0x72, 0xdf, 0xbd, 0x00, 0x88, 0x10, 0x3e,
  0xfa, 0x76, 0xda, 0xbc, 0x4a, 0x3f, 0x5a, 0xbd, 0x1a, 0xb0, 0x71, 0xbd,
  0x20, 0x5c, 0x82, 0xbd, 0xe2, 0xe0, 0xff, 0xff, 0x10, 0x00, 0x00, 0x00,
  0x07, 0x00, 0x00, 0x00, 0x1c, 0x00, 0x00, 0x00, 0x38, 0x00, 0x00, 0x00,
  0x04, 0x00, 0x00, 0x00, 0x08, 0x00, 0x00, 0x00, 0x04, 0x00, 0x00, 0x00,
  0x03, 0x00, 0x00, 0x00, 0x01, 0x00, 0x00, 0x00, 0x18, 0x00, 0x00, 0x00,
  0x73, 0x65, 0x71, 0x75, 0x65, 0x6e, 0x74, 0x69, 0x61, 0x6c, 0x2f, 0x63,
  0x6f, 0x6e, 0x76, 0x32, 0x64, 0x2f, 0x43, 0x6f, 0x6e, 0x76, 0x32, 0x44,
  0x00, 0x00, 0x00, 0x00, 0xdc, 0xe0, 0xff, 0xff, 0xd2, 0xe1, 0xff, 0xff,
  0x04, 0x00, 0x00, 0x00, 0xc0, 0x00, 0x00, 0x00, 0x0d, 0xc0, 0x84, 0xbd,
  0x9e, 0xb0, 0xc3, 0x3d, 0x76, 0x31, 0xc1, 0x3e, 0x46, 0x27, 0x21, 0xbe,
  0x85, 0x3a, 0xc4, 0xbd, 0x70, 0x9c, 0x5d, 0xbe, 0xa8, 0xb4, 0x0a, 0xbd,
  0x80, 0xaa, 0x93, 0x3e, 0xb5, 0x4f, 0x41, 0x3e, 0x5c, 0x11, 0xc0, 0xbe,
  0x42, 0x20, 0x3b, 0xbd, 0x89, 0x80, 0xd8, 0xbd, 0xd4, 0x9d, 0x8c, 0xbe,
  0x06, 0x40, 0x9c, 0x3c, 0x55, 0x19, 0xd4, 0x3e, 0x57, 0xed, 0xb3, 0x3e,
  0xd4, 0xb8, 0xaf, 0xbd, 0xb7, 0x50, 0x0d, 0x3e, 0xb7, 0xe2, 0xb1, 0x3e,
  0x08, 0x40, 0x59, 0xbe, 0xe8, 0x87, 0x01, 0xbe, 0xe9, 0x3d, 0x6f, 0xbe,
  0xf7, 0x8e, 0x70, 0xbd, 0x34, 0xd9, 0x16, 0xbf, 0x2e, 0x7d, 0x21, 0x3e,
  0xaa, 0x28, 0xaf, 0xbe, 0xd6, 0xe1, 0x39, 0xbf, 0x5f, 0xab, 0xf1, 0xbd,
  0x80, 0x32, 0x1f, 0x3e, 0x16, 0xac, 0x23, 0xbd, 0x17, 0x94, 0x65, 0xbe,
  0x03, 0x3b, 0xae, 0x3e, 0xef, 0xa4, 0xbb, 0xbd, 0xc8, 0x8f, 0x30, 0xbc,
  0x60, 0xac, 0x88, 0xbe, 0xa6, 0x51, 0x33, 0xbe, 0x22, 0x1e, 0x60, 0xbd,
  0xa6, 0x08, 0x13, 0xbe, 0x15, 0x94, 0xe1, 0xbd, 0xc7, 0x58, 0x88, 0x3d,
  0x6e, 0xda, 0x30, 0x3e, 0x38, 0x65, 0xe4, 0xbe, 0x60, 0x3c, 0x86, 0xbe,
  0xc5, 0x81, 0x59, 0xbd, 0x75, 0xd5, 0x30, 0xbe, 0x97, 0x7e, 0x81, 0xbd,
  0x2f, 0xf9, 0x99, 0x3e, 0x8d, 0x3f, 0xce, 0x3e, 0xfa, 0xe1, 0xff, 0xff,
  0x10, 0x00, 0x00, 0x00, 0x06, 0x00, 0x00, 0x00, 0x14, 0x00, 0x00, 0x00,
  0x30, 0x00, 0x00, 0x00, 0x02, 0x00, 0x00, 0x00, 0x03, 0x00, 0x00, 0x00,
  0x10, 0x00, 0x00, 0x00, 0x19, 0x00, 0x00, 0x00, 0x73, 0x65, 0x71, 0x75,
  0x65, 0x6e, 0x74, 0x69, 0x61, 0x6c, 0x2f, 0x64, 0x65, 0x6e, 0x73, 0x65,
  0x5f, 0x31, 0x2f, 0x4d, 0x61, 0x74, 0x4d, 0x75, 0x6c, 0x00, 0x00, 0x00,
  0xec, 0xe1, 0xff, 0xff, 0xe2, 0xe2, 0xff, 0xff, 0x04, 0x00, 0x00, 0x00,
  0x00, 0x1c, 0x00, 0x00, 0xcd, 0xad, 0x97, 0xbe, 0x74, 0xa0, 0x2a, 0xbc,
  0x01, 0x6c, 0x5f, 0x3e, 0xec, 0x1a, 0x97, 0x3e, 0x49, 0x46, 0xf8, 0xbe,
  0x83, 0x13, 0x1b, 0x3d, 0x96, 0xb3, 0x88, 0xbe, 0xe7, 0xfc, 0x0d, 0xbe,
  0x00, 0xb5, 0xa8, 0x3e, 0x7a, 0xec, 0xca, 0x3d, 0xbf, 0xc5, 0x0e, 0xbe,
  0x25, 0x35, 0xe9, 0xbc, 0x71, 0xfc, 0x32, 0xbe, 0x9a, 0x30, 0x20, 0x3e,
  0x69, 0x52, 0x81, 0x3e, 0xe1, 0x82, 0xa8, 0xbe, 0xd7, 0x83, 0x63, 0xbd,
  0xbf, 0x91, 0x6a, 0x3e, 0xc7, 0x17, 0xfe, 0x3e, 0xf7, 0x26, 0x91, 0x3c,
  0x56, 0xde, 0xa6, 0x3d, 0xf9, 0x99, 0x48, 0xbd, 0x76, 0x6b, 0xc7, 0x3d,
  0x31, 0xbf, 0xe0, 0xbb, 0xc3, 0xf5, 0xf9, 0x3e, 0xf8, 0x51, 0x87, 0x3d,
  0xc3, 0x21, 0x2a, 0x3c, 0x92, 0x07, 0x80, 0x3d, 0x3a, 0xe8, 0xb7, 0xbc,
  0x09, 0x06, 0xe1, 0x3e, 0x7f, 0x6f, 0x5a, 0x3b, 0x37, 0xbd, 0x06, 0x3d,
  0x4a, 0x64, 0xe8, 0xbd, 0x56, 0x4c, 0xa6, 0xbd, 0x09, 0x2a, 0xfe, 0x3e,
  0xfa, 0xa8, 0x02, 0xbd, 0xc4, 0x84, 0xed, 0xbd, 0xc8, 0x14, 0x3b, 0xbe,
  0x32, 0x35, 0xec, 0xbc, 0x74, 0xb9, 0x8c, 0xbd, 0xa5, 0xcd, 0x51, 0x3e,
  0x42, 0x9f, 0xa7, 0x3d, 0x96, 0xb1, 0xd8, 0xbd, 0xe7, 0xa7, 0xdb, 0x3d,
  0x00, 0xc6, 0x0f, 0x3e, 0x6c, 0x27, 0xc5, 0x3e, 0xdf, 0xef, 0x8d, 0x3e,
  0x34, 0x02, 0x26, 0xbd, 0x95, 0x27, 0xaf, 0xbc, 0x4b, 0x0c, 0x0a, 0xbe,
  0x42, 0xd5, 0x03, 0x3f, 0x1e, 0xbc, 0x40, 0xbc, 0x04, 0xba, 0x14, 0x3e,
  0xd1, 0xc1, 0x15, 0xbe, 0xa2, 0x96, 0x74, 0xbd, 0x4e, 0x89, 0x28, 0xbd,
  0xb3, 0x45, 0x7d, 0xbd, 0x50, 0xd0, 0x02, 0x3d, 0x30, 0x61, 0xb4, 0xbd,
  0xc7, 0x7e, 0x80, 0x3e, 0x23, 0xc4, 0x09, 0x3d, 0xf2, 0x3b, 0x90, 0xbd,
  0x9d, 0x67, 0xd4, 0x3d, 0x10, 0xd3, 0x1f, 0x3e, 0x75, 0x15, 0x10, 0xbd,
  0x4f, 0xd1, 0x34, 0x3d, 0x4d, 0x1e, 0xe2, 0x3e, 0x24, 0x8d, 0xb5, 0xbd,
  0x1c, 0x38, 0xc4, 0xbd, 0xc2, 0x39, 0x3c, 0xbe, 0xed, 0x89, 0xfe, 0x3d,
  0xb8, 0x57, 0xbb, 0x3d, 0x18, 0x7c, 0x53, 0x3d, 0x73, 0x2f, 0xec, 0xbb,
  0x3b, 0x83, 0x0b, 0xbe, 0xa6, 0x31, 0x02, 0x3d, 0x94, 0x1b, 0x2c, 0x3d,
  0xf9, 0x5e, 0x74, 0xbe, 0x94, 0x2d, 0x15, 0xbe, 0xac, 0x84, 0x0a, 0x3e,
  0xaa, 0xda, 0x08, 0x3d, 0x6a, 0x5f, 0x4b, 0xbd, 0x60, 0x78, 0xdb, 0x3e,
  0x03, 0xd6, 0xf3, 0xbd, 0x65, 0x6b, 0x05, 0xbe, 0xbf, 0xf5, 0x59, 0xbe,
  0x5b, 0x39, 0x78, 0x3c, 0x60, 0xf7, 0xb6, 0x3c, 0xdb, 0x02, 0x32, 0xbe,
  0x7b, 0x6a, 0x14, 0x3e, 0x7c, 0x1c, 0xc1, 0xbd, 0x9a, 0x19, 0x01, 0xbe,
  0x96, 0x9d, 0xe4, 0x3d, 0xf2, 0x2e, 0xbe, 0xbd, 0xfd, 0xfb, 0x8b, 0xbd,
  0xd4, 0xfd, 0x5a, 0xbc, 0x09, 0x6b, 0xc0, 0x3d, 0xba, 0x14, 0x22, 0x3e,
  0xe4, 0xe3, 0xa9, 0xbd, 0x0c, 0xf0, 0x57, 0x3e, 0xc7, 0x65, 0x9b, 0x3d,
  0x76, 0x5a, 0x19, 0xbc, 0x9a, 0x2a, 0x13, 0x3e, 0x34, 0x1a, 0x52, 0x3e,
  0x9b, 0xb3, 0x29, 0x3e, 0xe2, 0xf6, 0x75, 0x3d, 0x25, 0xdc, 0x04, 0xbe,
  0x7c, 0x88, 0x61, 0xbc, 0x59, 0xc9, 0x61, 0xb9, 0x4f, 0xa5, 0x46, 0x3e,
  0x95, 0x84, 0x8e, 0xbe, 0x0e, 0xaa, 0xef, 0x3d, 0x9e, 0xe4, 0x7c, 0xbe,
  0xe6, 0xf4, 0x43, 0xbe, 0xa7, 0x68, 0x09, 0x3f, 0xb4, 0xd8, 0x02, 0xbe,
  0xbc, 0xfa, 0x5d, 0x3e, 0x1e, 0xe1, 0xf8, 0xbd, 0xf3, 0x36, 0xc2, 0xbb,
  0x55, 0x6f, 0x4b, 0xbe, 0xb1, 0xbc, 0x20, 0x3d, 0x40, 0xf8, 0x7a, 0xbe,
  0x49, 0x2f, 0xa5, 0xbd, 0x0a, 0x58, 0x9d, 0x3e, 0xa0, 0x9f, 0xa3, 0xbd,
  0x5e, 0xb7, 0xed, 0x3d, 0xf8, 0xbf, 0x33, 0xbe, 0xd2, 0xdf, 0x51, 0x3e,
  0x92, 0xda, 0xd9, 0xbe, 0xc6, 0x88, 0xd7, 0x3b, 0xc0, 0x1d, 0x25, 0x3f,
  0x1c, 0x1e, 0x8d, 0x3d, 0x6b, 0xcd, 0x86, 0x3e, 0x0e, 0x36, 0x70, 0x3e,
  0x59, 0x0d, 0x73, 0xbd, 0x34, 0x70, 0x25, 0xbd, 0x45, 0x56, 0x91, 0xbe,
  0x42, 0x7e, 0xc1, 0x3e, 0xb3, 0x59, 0x9e, 0xbd, 0xb7, 0x2c, 0xfb, 0x3d,
  0x7e, 0x3c, 0x33, 0xbd, 0xde, 0x35, 0x95, 0xbe, 0x5c, 0x07, 0x7c, 0x3e,
  0x71, 0x18, 0xfb, 0x3c, 0x7a, 0x5d, 0x1b, 0xbe, 0x77, 0xea, 0xe4, 0xbd,
  0x56, 0xcd, 0x0e, 0x3f, 0x20, 0x41, 0x1d, 0x3e, 0xbc, 0x8c, 0x85, 0x3e,
  0xa3, 0x2f, 0xef, 0xbb, 0x8a, 0x60, 0xb9, 0x3d, 0x4e, 0xfd, 0x3c, 0xbe,
  0xed, 0x24, 0x97, 0xbe, 0xd4, 0x34, 0xb2, 0x3e, 0xf7, 0x3a, 0xb0, 0xbd,
  0x47, 0x69, 0xc1, 0xbd, 0xd6, 0x9c, 0x2d, 0xbe, 0xed, 0xf8, 0x59, 0xbe,
  0xc2, 0xb5, 0x50, 0xbe, 0x32, 0xfa, 0x7c, 0x3e, 0x0c, 0x14, 0x86, 0xbd,
  0x12, 0xa5, 0x53, 0x3e, 0x55, 0xdc, 0xaa, 0x3e, 0x2f, 0x0b, 0x0e, 0xbe,
  0xc7, 0x8d, 0xa3, 0xbe, 0x4f, 0xe5, 0x9c, 0xbe, 0x79, 0x9e, 0x6b, 0x3e,
  0xe3, 0x7b, 0x89, 0xbc, 0xba, 0x97, 0x60, 0x3d, 0xfc, 0xaf, 0x14, 0x3e,
  0xe9, 0xfa, 0x97, 0xbd, 0x1c, 0xf3, 0x55, 0xbe, 0x61, 0x4e, 0x40, 0xbe,
  0xf3, 0x0d, 0x21, 0xbe, 0xd5, 0x8c, 0x47, 0x3e, 0xf4, 0x9a, 0x42, 0xbd,
  0x68, 0xd6, 0x18, 0xbe, 0x34, 0x18, 0xca, 0x3c, 0x0e, 0xac, 0xef, 0x3e,
  0x2b, 0x01, 0x87, 0xbe, 0x1c, 0x4f, 0xc1, 0xbd, 0x17, 0xf7, 0x92, 0x3e,
  0xc9, 0x1f, 0x22, 0xbd, 0x83, 0xc2, 0xc6, 0x3d, 0x32, 0x1f, 0x04, 0x3e,
  0x73, 0x54, 0xb4, 0x3d, 0x98, 0x73, 0x8b, 0x3e, 0xe3, 0xde, 0x35, 0x3e,
  0xef, 0x61, 0xed, 0xbd, 0xf0, 0x5b, 0x90, 0xbd, 0xbe, 0x57, 0x07, 0xbd,
  0xcf, 0xc7, 0x5f, 0x3d, 0x82, 0xe4, 0xa7, 0xbd, 0x0e, 0xee, 0x96, 0xbe,
  0x5c, 0x97, 0xfd, 0x3e, 0xff, 0xb4, 0xf2, 0x3b, 0xf7, 0xa2, 0x38, 0xbe,
  0x5e, 0x25, 0xca, 0x3d, 0x0e, 0xe1, 0x95, 0x3d, 0xbf, 0x0d, 0xa8, 0xbd,
  0xcf, 0xb4, 0xa6, 0xbe, 0x41, 0x1b, 0x20, 0x3d, 0x93, 0xb8, 0x23, 0xbe,
  0x53, 0xc2, 0x81, 0x3e, 0x68, 0x2d, 0x17, 0x3d, 0x23, 0xa8, 0xb2, 0xbe,
  0x0b, 0x6e, 0x6a, 0xbe, 0x44, 0xde, 0xf1, 0x3d, 0x86, 0x17, 0x11, 0xbe,
  0x61, 0xd1, 0x82, 0x3d, 0x4d, 0xee, 0x29, 0xbd, 0x4f, 0x04, 0x6e, 0x3d,
  0xd9, 0x5a, 0x1a, 0xbe, 0xc0, 0xd1, 0x16, 0x3e, 0xf9, 0xfe, 0xdf, 0xbb,
  0xdd, 0x18, 0xd4, 0xbe, 0x28, 0x37, 0x0c, 0xbf, 0x71, 0xa5, 0xf5, 0x3d,
  0x5e, 0xb4, 0x1a, 0xbd, 0x1d, 0xb6, 0x08, 0xbe, 0x64, 0x2f, 0x0b, 0x3e,
  0x2a, 0xcb, 0xcd, 0xbe, 0x67, 0x4b, 0x5f, 0xbe, 0xe9, 0xd0, 0xee, 0x3d,
  0xd6, 0x6d, 0x2d, 0xbd, 0xdc, 0x7e, 0x26, 0xbd, 0x6e, 0xaf, 0xf9, 0x3d,
  0xac, 0x47, 0xb8, 0x3c, 0x06, 0x0a, 0x86, 0x3d, 0x69, 0x81, 0xca, 0xbd,
  0x7d, 0x37, 0x83, 0xbd, 0x60, 0x51, 0x43, 0x3d, 0xc1, 0x34, 0x60, 0x3e,
  0xdf, 0x30, 0xe1, 0xbd, 0x56, 0x80, 0xc7, 0xbd, 0x3b, 0x6b, 0x1a, 0xbd,
  0x43, 0xae, 0x4f, 0xbe, 0x66, 0x70, 0xb7, 0x3d, 0x21, 0xe9, 0x23, 0xbe,
  0xce, 0xb8, 0x98, 0xbc, 0x7c, 0xe2, 0x01, 0xbe, 0xa9, 0x9e, 0x3f, 0xbe,
  0xcd, 0x1c, 0x73, 0x3c, 0x4e, 0x0d, 0x18, 0xbd, 0xee, 0xd7, 0x00, 0xbd,
  0xd2, 0x53, 0x4e, 0xbc, 0x27, 0x4a, 0x0f, 0xbe, 0x5f, 0x31, 0x6a, 0xbe,
  0xe1, 0xc6, 0xcd, 0xbc, 0x55, 0x65, 0xb8, 0xbd, 0x26, 0x04, 0x26, 0xbe,
  0x53, 0x29, 0x72, 0xbe, 0xb2, 0x6a, 0xc2, 0xbd, 0x44, 0x89, 0x55, 0x3d,
  0x65, 0xe9, 0x39, 0x3e, 0x58, 0x81, 0x00, 0xbe, 0xac, 0x16, 0xcc, 0xbd,
  0xe3, 0x80, 0x52, 0x3e, 0x5f, 0xbf, 0xd0, 0xbd, 0x33, 0xea, 0x5a, 0xba,
  0xaf, 0x5c, 0x1f, 0xbd, 0xe3, 0xd7, 0xd6, 0xbd, 0x3e, 0x38, 0xb1, 0x3d,
  0xe5, 0x49, 0xd6, 0xbc, 0xab, 0xd9, 0x47, 0xbe, 0xa1, 0x8f, 0x04, 0xbd,
  0x47, 0x74, 0x33, 0xbe, 0xd9, 0xc7, 0x49, 0xbc, 0xc2, 0x46, 0xf5, 0x3c,
  0xbf, 0x76, 0x12, 0x3e, 0x13, 0xed, 0x1e, 0xbe, 0x8e, 0xe1, 0x99, 0xbe,
  0x5a, 0xd6, 0x67, 0xbe, 0xba, 0x2c, 0xc1, 0x3d, 0x66, 0x93, 0x33, 0x3c,
  0xbf, 0x49, 0x5b, 0x3e, 0x95, 0x98, 0x0f, 0xbd, 0x71, 0x77, 0x33, 0x3c,
  0x38, 0x34, 0xb4, 0x3c, 0x6a, 0x0b, 0xbb, 0x3d, 0x52, 0x59, 0x70, 0xbe,
  0xcb, 0xa5, 0xfe, 0x3d, 0xda, 0x07, 0xba, 0xbd, 0x4c, 0x7f, 0x2d, 0xbe,
  0x68, 0xdf, 0x4d, 0x3d, 0xa1, 0x2c, 0x81, 0x3d, 0x7f, 0x7d, 0x45, 0x3d,
  0x75, 0x67, 0xca, 0x3d, 0x4f, 0xd4, 0x55, 0xba, 0x24, 0xa3, 0xcb, 0x3c,
  0x4b, 0xff, 0x45, 0xbe, 0xbb, 0x05, 0x4c, 0x3e, 0xf9, 0xa0, 0x62, 0xbe,
  0x60, 0xd2, 0x8e, 0xbd, 0x81, 0x3d, 0x57, 0xbe, 0x2b, 0x2d, 0x48, 0xbe,
  0xbc, 0x04, 0x75, 0xbd, 0x8e, 0x22, 0x1d, 0x3d, 0x8b, 0x4a, 0x1f, 0xbd,
  0x77, 0xca, 0xc9, 0x3c, 0xf0, 0x3c, 0xee, 0xbc, 0x91, 0x13, 0xa7, 0x3d,
  0xe7, 0xcb, 0xb8, 0x3e, 0x67, 0x23, 0x55, 0xbe, 0xea, 0xe8, 0x89, 0xbd,
  0xa3, 0xd6, 0x37, 0xbc, 0x46, 0x32, 0x16, 0xbd, 0xf3, 0xf9, 0x90, 0x3d,
  0x4f, 0x83, 0x1e, 0x3d, 0x09, 0x3f, 0x47, 0xbd, 0x8e, 0x9f, 0x0c, 0xbe,
  0xd0, 0x56, 0xd6, 0x3d, 0x50, 0xef, 0x91, 0x3e, 0xe8, 0x62, 0x15, 0xbc,
  0x7c, 0xda, 0x86, 0x3c, 0xc4, 0xd5, 0xf8, 0x3b, 0x8a, 0xca, 0x8a, 0xbd,
  0xef, 0xff, 0x9d, 0x3e, 0xc5, 0xe5, 0xac, 0x3d, 0x64, 0x54, 0x0f, 0x3e,
  0xf0, 0x68, 0x67, 0xbe, 0xdd, 0x85, 0x7f, 0xbd, 0x3c, 0x61, 0xe2, 0xbd,
  0xb1, 0x7a, 0xb3, 0x3d, 0x4c, 0x04, 0x97, 0xbb, 0x9e, 0xb4, 0x45, 0xbd,
  0x9b, 0x28, 0xe2, 0x3d, 0x85, 0x3f, 0x2d, 0x3d, 0xbe, 0xee, 0x32, 0x3e,
  0x95, 0xfb, 0x87, 0xbe, 0x7a, 0x0c, 0xfd, 0xbd, 0x66, 0x4b, 0xa9, 0xbd,
  0xf6, 0x1e, 0x2f, 0xbe, 0x6e, 0xa7, 0x21, 0x3e, 0x33, 0xa7, 0xcb, 0xbd,
  0x8e, 0xe3, 0x2a, 0xbe, 0x6d, 0xdb, 0xa2, 0xbe, 0x0c, 0x6d, 0xf4, 0x3d,
  0x4b, 0xf8, 0xa0, 0xbe, 0xfa, 0x5f, 0x29, 0x3e, 0x26, 0xa1, 0x42, 0xbe,
  0x34, 0x48, 0x70, 0xbd, 0xe8, 0xfc, 0x8c, 0xbe, 0x3d, 0x66, 0xb8, 0xbe,
  0x40, 0x58, 0xc7, 0x3e, 0x61, 0xfb, 0x76, 0x3e, 0xe6, 0x33, 0x05, 0x3e,
  0x66, 0xed, 0x81, 0xbd, 0xa2, 0x51, 0x29, 0x3d, 0x4a, 0x9b, 0xf8, 0x3e,
  0xed, 0x61, 0xd4, 0x3d, 0xbd, 0xef, 0xfb, 0xbe, 0xa8, 0xca, 0x8d, 0x3e,
  0xb8, 0x90, 0xf2, 0xbc, 0x15, 0x96, 0x36, 0xbe, 0xb8, 0x03, 0x38, 0xbe,
  0x35, 0xaa, 0x11, 0xbc, 0x82, 0xa6, 0x14, 0xbe, 0xed, 0x5e, 0x51, 0xbb,
  0xfe, 0xc4, 0xd1, 0xbd, 0xea, 0xf2, 0xb9, 0x3e, 0x4e, 0x57, 0x44, 0xbd,
  0x59, 0xf0, 0x18, 0x3d, 0x1c, 0x6f, 0xa5, 0xbe, 0x49, 0x36, 0xd9, 0xbd,
  0x2b, 0x7a, 0xbe, 0x3e, 0xf4, 0x7d, 0x13, 0xbd, 0xdb, 0xe5, 0xe5, 0xbc,
  0x92, 0x7e, 0xac, 0xbd, 0xeb, 0x82, 0x4f, 0xbc, 0x75, 0xc6, 0x49, 0xbd,
  0x65, 0xde, 0x35, 0xbe, 0xfa, 0x84, 0x5f, 0xbd, 0xab, 0xad, 0xc8, 0xbd,
  0xee, 0x46, 0xaf, 0xbd, 0xa7, 0x5e, 0xff, 0x3d, 0xe7, 0x60, 0x18, 0x3f,
  0x5f, 0x6a, 0x4e, 0xbd, 0x4a, 0xcb, 0x6a, 0x3c, 0xff, 0x2e, 0x88, 0x3d,
  0xe4, 0x1e, 0x5f, 0x3c, 0xe3, 0x2d, 0xd7, 0x3e, 0x77, 0xc9, 0xd3, 0x3e,
  0xaf, 0x0f, 0xf2, 0xba, 0x5d, 0xbd, 0xa3, 0xbd, 0x92, 0x99, 0x2b, 0xbe,
  0x01, 0x4a, 0x1c, 0xbd, 0x68, 0xb3, 0xe7, 0xbc, 0xda, 0xac, 0x07, 0xbe,
  0xb3, 0x50, 0x00, 0xbf, 0x0f, 0x3d, 0x0b, 0x3d, 0xdd, 0xdf, 0xcb, 0x3d,
  0x09, 0x63, 0xf9, 0xbd, 0xf9, 0xfa, 0xec, 0xbc, 0x66, 0x90, 0x2a, 0xbd,
  0x8d, 0xfa, 0x12, 0x3e, 0x2a, 0x92, 0xe0, 0x3d, 0x81, 0xaf, 0x55, 0xbe,
  0xcf, 0xe2, 0x54, 0xbe, 0x51, 0xa4, 0x36, 0xbd, 0xc8, 0x13, 0xc0, 0xbc,
  0x9e, 0x3f, 0x0a, 0xbe, 0xec, 0xda, 0x1b, 0x3e, 0xba, 0xa5, 0x5d, 0xbd,
  0x88, 0x18, 0xf2, 0x3d, 0xcc, 0xfb, 0xd6, 0xbe, 0x09, 0xc0, 0x0f, 0x3b,
  0x3f, 0x96, 0x66, 0x3d, 0x26, 0x57, 0x5f, 0xbe, 0x11, 0x22, 0xfc, 0x3d,
  0x2b, 0x3d, 0xc0, 0xbd, 0x7e, 0x44, 0x02, 0xbc, 0x5e, 0x6c, 0x08, 0x3d,
  0x3b, 0xc1, 0x99, 0xbe, 0x1b, 0xfd, 0x3c, 0xbd, 0x75, 0xab, 0x2b, 0xbc,
  0xc6, 0x11, 0x51, 0x3d, 0x8b, 0x10, 0xe2, 0xbd, 0xec, 0x95, 0xcf, 0x3d,
  0x7c, 0x57, 0x92, 0xbe, 0x65, 0x9a, 0x04, 0x3e, 0x9b, 0x19, 0x1b, 0xbf,
  0x50, 0x73, 0xb9, 0x3c, 0xf6, 0x3b, 0xf1, 0x3d, 0xb8, 0xbb, 0xb3, 0xbe,
  0xf0, 0xa1, 0x7a, 0xbc, 0x38, 0xe4, 0x33, 0xbd, 0x1d, 0x4d, 0xc7, 0xbe,
  0x8f, 0x39, 0x26, 0x3d, 0x6f, 0x9d, 0xf6, 0xbd, 0x31, 0x27, 0xf1, 0xbe,
  0xdf, 0xf3, 0x01, 0x3e, 0x91, 0x41, 0x12, 0xbd, 0xe9, 0x82, 0xbf, 0x3d,
  0x03, 0x26, 0x2c, 0x3e, 0x6b, 0xe9, 0x92, 0xbb, 0xa7, 0x27, 0x23, 0x3e,
  0x04, 0x74, 0xe5, 0xbc, 0x1f, 0xa7, 0xbb, 0xbd, 0x76, 0xdd, 0xd6, 0x3d,
  0x07, 0x0c, 0x0d, 0x3e, 0x8a, 0xdd, 0x03, 0x3d, 0xd9, 0x34, 0x4f, 0x3d,
  0xbd, 0xac, 0x5b, 0xbd, 0x5b, 0x64, 0xdd, 0x3c, 0xdf, 0xa1, 0x46, 0x3d,
  0xe3, 0x9a, 0x91, 0x3e, 0xb5, 0x2c, 0x23, 0x3e, 0x7c, 0x34, 0xaf, 0x3e,
  0x11, 0xaa, 0x81, 0x3e, 0x0a, 0xe1, 0xd1, 0x3e, 0x9a, 0x72, 0xf7, 0x3c,
  0x3e, 0x76, 0xf2, 0x3e, 0xa5, 0x82, 0xf5, 0xbe, 0x66, 0x8f, 0xcc, 0xbe,
  0xdd, 0x7d, 0x9d, 0xbd, 0x53, 0x82, 0x8f, 0xbe, 0x3a, 0xd5, 0x13, 0x3e,
  0x22, 0x82, 0x08, 0x3e, 0xea, 0xc0, 0x01, 0xbf, 0x45, 0x82, 0x06, 0x3e,
  0x06, 0x9b, 0xc6, 0xbd, 0xde, 0x16, 0xe7, 0xbe, 0x0c, 0x74, 0xfc, 0x3e,
  0xf6, 0x69, 0x1a, 0xbe, 0x0b, 0x43, 0x85, 0x3d, 0xde, 0x2b, 0x99, 0x3d,
  0xa5, 0x46, 0xc7, 0xbd, 0x50, 0x13, 0xc1, 0x3d, 0x07, 0xe0, 0xd7, 0xbe,
  0xb7, 0x4e, 0xb9, 0xbe, 0x73, 0x84, 0xea, 0xbd, 0x9f, 0xd3, 0x9a, 0xbe,
  0x90, 0x2c, 0x22, 0x3e, 0x60, 0xc8, 0x68, 0xbd, 0x0d, 0x84, 0x88, 0x3d,
  0xc7, 0xcb, 0x5c, 0xbd, 0x36, 0xef, 0x3e, 0xbe, 0x5b, 0xcc, 0x28, 0x3e,
  0x65, 0xe2, 0x28, 0xbd, 0xb9, 0x7a, 0x40, 0x3c, 0x17, 0x8e, 0xd7, 0xbd,
  0xfe, 0x59, 0x3f, 0x3e, 0x3f, 0xd3, 0xc3, 0xbd, 0x2f, 0x4f, 0x9c, 0xbd,
  0x07, 0x5e, 0x7c, 0xbe, 0x91, 0xd3, 0x6f, 0xbe, 0x4c, 0x68, 0x6a, 0xbe,
  0x8a, 0x36, 0x50, 0x3e, 0x11, 0xdb, 0x28, 0x3e, 0x8d, 0x84, 0x5f, 0xbc,
  0x93, 0x80, 0xf2, 0xbc, 0xa2, 0x50, 0xea, 0xbc, 0x80, 0x11, 0xbc, 0x3d,
  0xd9, 0x3e, 0x13, 0x3e, 0x89, 0xe6, 0xc1, 0x3c, 0x7e, 0x0d, 0x8b, 0x3e,
  0x86, 0xe7, 0xa7, 0x3d, 0xf4, 0x9b, 0x59, 0x3d, 0x2d, 0xb0, 0xe6, 0x3d,
  0x62, 0x2b, 0xab, 0xbd, 0x17, 0x39, 0x2a, 0xbe, 0xf1, 0xcc, 0x12, 0xbd,
  0x3c, 0xd1, 0xec, 0x3d, 0x88, 0xf7, 0x5a, 0x3e, 0x62, 0x4b, 0xb5, 0xbd,
  0xf7, 0x8d, 0x22, 0xbc, 0x23, 0x5e, 0xfe, 0xbe, 0x3e, 0xd7, 0x9a, 0x3d,
  0xb0, 0xaa, 0x78, 0x3e, 0x93, 0xab, 0xc1, 0xbc, 0x44, 0x8d, 0x5e, 0x3d,
  0xb6, 0x93, 0x1b, 0x3e, 0x3e, 0x60, 0x59, 0x3c, 0x59, 0xcc, 0x86, 0xbe,
  0xb6, 0xd3, 0x79, 0xbc, 0xff, 0xe3, 0x76, 0x3d, 0xed, 0x8a, 0x51, 0xbe,
  0x7d, 0x50, 0xd6, 0xbd, 0x28, 0x42, 0x54, 0x3e, 0x94, 0x12, 0x59, 0xbe,
  0x8f, 0x84, 0x05, 0x3b, 0x54, 0xcf, 0x84, 0x3a, 0xea, 0xeb, 0x21, 0xbf,
  0xb7, 0xa0, 0xbb, 0x3c, 0x14, 0x5b, 0xf9, 0xbc, 0x70, 0xa2, 0x52, 0xbe,
  0x1e, 0x12, 0x9a, 0x3e, 0xe3, 0x15, 0xb2, 0x3e, 0xb1, 0x8b, 0xbd, 0x3e,
  0x68, 0xe3, 0x2d, 0xbc, 0x1a, 0x4b, 0x2f, 0x3b, 0x27, 0xb9, 0xc3, 0x3e,
  0xad, 0xca, 0xbc, 0xbe, 0x40, 0x4a, 0x53, 0xbd, 0x34, 0x06, 0xb4, 0x3e,
  0x20, 0xf5, 0x37, 0x3c, 0x81, 0x64, 0x56, 0xbc, 0x9e, 0xb7, 0x9b, 0x3d,
  0x84, 0x15, 0xfa, 0xbe, 0x23, 0x82, 0x39, 0x3d, 0x19, 0xa1, 0xdc, 0xbc,
  0xe4, 0x75, 0x9d, 0xbe, 0x6f, 0xbd, 0x90, 0x3e, 0x21, 0xf8, 0xfa, 0x3d,
  0x46, 0x43, 0xd8, 0x3d, 0x9c, 0xf2, 0x00, 0x3e, 0x87, 0xd3, 0x0c, 0xbe,
  0x92, 0x2b, 0xc7, 0x3e, 0x60, 0xbf, 0xa3, 0xbd, 0xe7, 0x63, 0x15, 0x3c,
  0xaf, 0xcf, 0x7d, 0x3e, 0xb2, 0xaf, 0xc3, 0xbd, 0x9b, 0x8f, 0xb9, 0x3d,
  0x02, 0xb6, 0xcf, 0x3b, 0xae, 0xc0, 0x42, 0xbe, 0xc8, 0x24, 0x00, 0x3d,
  0xa4, 0xb2, 0x37, 0xbe, 0x69, 0x6f, 0x02, 0xbc, 0xbd, 0xfa, 0xa0, 0x3e,
  0xd6, 0xd5, 0xa8, 0x3e, 0xdd, 0xde, 0x1b, 0x3e, 0x22, 0x97, 0xdb, 0x3d,
  0x4d, 0x39, 0x6f, 0xbe, 0x94, 0x68, 0x15, 0x3e, 0xad, 0x59, 0x52, 0xbe,
  0xaa, 0x6c, 0x12, 0xbe, 0x22, 0x1f, 0xe2, 0xbc, 0x80, 0x4b, 0x2b, 0xbf,
  0x0b, 0x78, 0x17, 0x3e, 0x95, 0x35, 0xd6, 0x3d, 0x83, 0x37, 0xb0, 0xbe,
  0xa1, 0x7c, 0x75, 0x3d, 0xd9, 0xa9, 0x2b, 0xbc, 0xdd, 0xaa, 0xcd, 0xbe,
  0x5b, 0xac, 0x19, 0x3f, 0x41, 0x58, 0x60, 0x3e, 0x90, 0xa3, 0xbe, 0xbb,
  0xfe, 0xd7, 0x88, 0x3e, 0x92, 0x03, 0x04, 0xbf, 0x33, 0x31, 0x0c, 0xbd,
  0x36, 0xc3, 0xb7, 0xbe, 0x3e, 0x8f, 0x5e, 0xbe, 0x8f, 0x81, 0x53, 0x3c,
  0x3a, 0xe5, 0x92, 0xbe, 0x98, 0xbf, 0x9a, 0xbb, 0x06, 0xac, 0xb8, 0x3a,
  0x26, 0xec, 0x89, 0x3d, 0x45, 0xe0, 0x52, 0x3b, 0x35, 0x81, 0x53, 0xbe,
  0xe8, 0xc6, 0x56, 0xbd, 0xda, 0x02, 0xee, 0x3b, 0x9e, 0x94, 0x93, 0x3d,
  0x6c, 0x95, 0x7f, 0x3c, 0xf2, 0xb9, 0xb5, 0x3e, 0x03, 0xd9, 0xb9, 0xbe,
  0xc7, 0xd7, 0xb3, 0xbd, 0x07, 0xe4, 0xd6, 0xbe, 0x9a, 0x8a, 0xe3, 0xbd,
  0x01, 0x1c, 0x82, 0xbb, 0xa3, 0x0a, 0xc1, 0xbd, 0xf2, 0x18, 0x07, 0x3c,
  0x38, 0x8e, 0x78, 0xbd, 0x09, 0x05, 0xc0, 0xbd, 0x45, 0x00, 0x56, 0x3c,
  0x2e, 0x69, 0x11, 0x3e, 0xb9, 0x9f, 0x43, 0xbd, 0xbc, 0x0b, 0xed, 0x3d,
  0xaf, 0x22, 0x69, 0x3e, 0x9f, 0x8a, 0x76, 0xbd, 0x13, 0x30, 0x81, 0x3e,
  0xa7, 0x29, 0x06, 0xbe, 0xd9, 0x83, 0xab, 0x3d, 0x7e, 0x6b, 0x85, 0xbe,
  0x05, 0x57, 0x68, 0xbd, 0xb6, 0x2e, 0x6d, 0x3d, 0xce, 0x3a, 0xbc, 0x3c,
  0xde, 0xed, 0x1b, 0x3c, 0x42, 0xa6, 0x8a, 0xbd, 0xcf, 0x6b, 0x78, 0xbe,
  0xe4, 0x77, 0x48, 0x3c, 0x5d, 0x6e, 0x00, 0x3f, 0xdb, 0x6a, 0x8a, 0xbe,
  0xfb, 0x62, 0x32, 0x3e, 0xfc, 0x9a, 0xac, 0x3e, 0x57, 0x92, 0x10, 0x3e,
  0xcd, 0xd3, 0x0b, 0xbe, 0xf1, 0xe9, 0x02, 0xbf, 0x49, 0xc4, 0x7c, 0x3e,
  0x64, 0x37, 0xde, 0xbd, 0x3c, 0x1e, 0xe1, 0x3d, 0xfd, 0x18, 0x65, 0x3c,
  0x48, 0x3b, 0xd8, 0xbd, 0xe8, 0xdf, 0x10, 0xbe, 0x2f, 0xd7, 0x87, 0xbb,
  0xc7, 0x2c, 0xf1, 0xbe, 0x33, 0x0a, 0x1e, 0x3c, 0x95, 0x35, 0xc6, 0x3d,
  0xf0, 0xf4, 0xf1, 0xbe, 0x46, 0xb8, 0xaa, 0x3e, 0xcf, 0x4b, 0x54, 0x3d,
  0x4c, 0x5c, 0x72, 0x3e, 0x55, 0xa3, 0xa9, 0x3e, 0xfd, 0xbb, 0x3c, 0xbf,
  0xf9, 0xa1, 0x8f, 0x3e, 0x81, 0xa8, 0xa7, 0xbe, 0xab, 0x38, 0x43, 0xbd,
  0xf2, 0x1a, 0x58, 0x3e, 0x73, 0xc1, 0x25, 0xbd, 0x92, 0xcf, 0x8c, 0x3d,
  0xd5, 0x36, 0x94, 0x3d, 0xbf, 0xd3, 0x00, 0xbf, 0x8d, 0x8a, 0x16, 0x3e,
  0x88, 0xc2, 0x43, 0x3e, 0x45, 0xda, 0x31, 0xbf, 0x52, 0xca, 0xf8, 0x3e,
  0x5f, 0xbd, 0xa2, 0x3e, 0x32, 0x74, 0xe9, 0xbb, 0x3c, 0x06, 0x66, 0x3e,
  0xd6, 0x2e, 0x0b, 0xbe, 0xcf, 0x88, 0x99, 0x3e, 0xe9, 0xf0, 0x88, 0xbe,
  0x2c, 0x1b, 0x61, 0x3e, 0x38, 0xc5, 0x69, 0x3e, 0x4b, 0xd7, 0xce, 0xbe,
  0x73, 0x83, 0x94, 0x3d, 0xac, 0x4e, 0x81, 0x3d, 0xce, 0xe6, 0x9d, 0xbd,
  0xe4, 0xb5, 0xb9, 0x3c, 0x9d, 0x46, 0x99, 0xbb, 0x1d, 0x33, 0x87, 0xbb,
  0x6f, 0x49, 0xaa, 0x3e, 0x4e, 0x0c, 0x1d, 0xbe, 0x99, 0xb2, 0x83, 0xbc,
  0x90, 0x60, 0x7d, 0x3f, 0x36, 0x9f, 0x97, 0xbe, 0x9b, 0x7b, 0x86, 0xbe,
  0x19, 0xd1, 0x04, 0xbe, 0x42, 0xe7, 0x55, 0xbd, 0x82, 0x67, 0xdf, 0xbb,
  0xeb, 0x3c, 0x95, 0xbe, 0x43, 0xb0, 0x6a, 0x3d, 0xc4, 0x21, 0x03, 0xbe,
  0xa7, 0xf4, 0x4f, 0xbe, 0x6b, 0xb1, 0x61, 0xbd, 0xc3, 0x9a, 0x3d, 0xbe,
  0x03, 0xde, 0xe2, 0xbe, 0x89, 0x52, 0xda, 0x3d, 0x77, 0x56, 0xb4, 0xbd,
  0x7a, 0x6e, 0x10, 0x3e, 0xff, 0xc2, 0x3e, 0x3f, 0xe1, 0xff, 0xfe, 0xbe,
  0x82, 0x48, 0x28, 0x3e, 0x72, 0xeb, 0xc8, 0xbe, 0x86, 0x58, 0x1b, 0xbc,
  0x1c, 0x8d, 0x08, 0xbc, 0x81, 0xb7, 0x8b, 0xbe, 0x95, 0xe6, 0xf7, 0xbe,
  0xe8, 0xa3, 0x22, 0xbd, 0x60, 0x55, 0xeb, 0xbd, 0x2a, 0xee, 0x46, 0x3d,
  0xe5, 0x21, 0xc1, 0xbd, 0x27, 0xa7, 0xa4, 0xbd, 0x76, 0x4c, 0xbd, 0xbd,
  0x07, 0x54, 0x34, 0xbe, 0x4f, 0x52, 0x9f, 0x3e, 0x6d, 0xb3, 0x3e, 0x3f,
  0xe9, 0x81, 0x35, 0xbd, 0x78, 0xbf, 0xa8, 0xbd, 0x1a, 0x9a, 0x94, 0xbe,
  0xf3, 0x8c, 0x63, 0xbb, 0x4f, 0x8d, 0xb1, 0xbd, 0xfd, 0x15, 0x88, 0xbe,
  0xc9, 0xb3, 0x75, 0xbe, 0x80, 0xbe, 0x0f, 0xbe, 0x40, 0x38, 0xc9, 0xbd,
  0xd8, 0xc9, 0x1e, 0xbd, 0x31, 0x57, 0x2c, 0xbe, 0x5f, 0xf0, 0x6f, 0x3e,
  0x85, 0x6a, 0x5c, 0xbc, 0x14, 0xa8, 0x18, 0xbe, 0x25, 0xcb, 0x20, 0x3e,
  0x6b, 0x2c, 0x63, 0x3f, 0x37, 0xe9, 0x78, 0x3e, 0xcd, 0x5a, 0x90, 0x3d,
  0xc1, 0x28, 0x1a, 0x3c, 0x3e, 0xfb, 0x7b, 0xbd, 0x94, 0x33, 0x31, 0xbe,
  0x04, 0xb3, 0x75, 0x3c, 0x0b, 0xd2, 0x1a, 0xbe, 0x76, 0x9c, 0x08, 0x3d,
  0x94, 0x34, 0x50, 0xbe, 0x10, 0xc6, 0x9c, 0x3d, 0xd2, 0x4e, 0x93, 0xbd,
  0x10, 0x40, 0xf7, 0x3e, 0xfe, 0xa4, 0xf0, 0xbd, 0xf9, 0xdc, 0x04, 0xbe,
  0x47, 0x1b, 0x54, 0x3d, 0x0f, 0x72, 0x22, 0x3f, 0x7a, 0x8e, 0xbb, 0x3e,
  0xd1, 0x84, 0x47, 0xbd, 0x58, 0x77, 0x4d, 0x3e, 0x04, 0x4b, 0xcf, 0xbd,
  0x2c, 0x45, 0x5b, 0xbc, 0x03, 0x63, 0xc7, 0x3e, 0xf5, 0xc2, 0x00, 0x3e,
  0x52, 0x80, 0x4c, 0x3c, 0x24, 0xc9, 0xd9, 0xbc, 0xd7, 0xa8, 0xac, 0xbb,
  0xe8, 0xcb, 0xea, 0x3e, 0xbd, 0x2b, 0xbf, 0x3e, 0x20, 0xf0, 0xda, 0x3d,
  0x53, 0x92, 0x93, 0xbd, 0xff, 0xc3, 0x25, 0x3e, 0x02, 0x63, 0x36, 0x3f,
  0x96, 0x78, 0x53, 0x3e, 0xe3, 0x1e, 0x96, 0xbd, 0x8f, 0x95, 0xcc, 0x3d,
  0x0d, 0x27, 0xf8, 0xbd, 0x48, 0x38, 0xce, 0x3c, 0x81, 0xb9, 0xed, 0x3e,
  0x83, 0x2b, 0x0d, 0xbe, 0xbf, 0x14, 0xcd, 0x3d, 0xe9, 0x0f, 0x39, 0xbd,
  0x4c, 0xd5, 0xdc, 0xbd, 0xf1, 0x33, 0x28, 0x3f, 0x7c, 0x4a, 0x9e, 0x3e,
  0x9d, 0x26, 0xaa, 0x3e, 0xeb, 0xae, 0x9e, 0xbb, 0x69, 0x83, 0x79, 0x3d,
  0x63, 0x30, 0x3d, 0xbe, 0x56, 0x77, 0xdc, 0xbc, 0x5d, 0x64, 0x83, 0xbe,
  0x0e, 0x13, 0xb9, 0xbc, 0x91, 0xa9, 0x36, 0x3e, 0x0b, 0x7a, 0x1b, 0x3e,
  0x96, 0xef, 0xb7, 0x3e, 0x54, 0x84, 0x8d, 0xbe, 0xe2, 0xc4, 0x05, 0xbe,
  0xcd, 0x1c, 0x11, 0xbd, 0xa5, 0x8f, 0xaf, 0xbe, 0xcf, 0x64, 0x8c, 0x3e,
  0x79, 0xed, 0x0f, 0x3c, 0x5e, 0x9d, 0x87, 0x3d, 0x8d, 0x2e, 0x09, 0x3e,
  0x84, 0x3d, 0x27, 0xbc, 0x5f, 0xbf, 0xb2, 0x3f, 0x84, 0x40, 0x75, 0xbe,
  0x47, 0xcf, 0xc2, 0x3e, 0x28, 0x05, 0x8f, 0xbc, 0x1e, 0xd3, 0x41, 0xbe,
  0x26, 0x06, 0x0e, 0xbe, 0xac, 0x0d, 0x2b, 0xbe, 0x14, 0xa8, 0x37, 0xbe,
  0x98, 0x36, 0xc9, 0xbe, 0x53, 0xa6, 0x1a, 0xbe, 0xdc, 0xaa, 0x6f, 0xbd,
  0x36, 0x2d, 0x21, 0x3c, 0xbb, 0xb4, 0xa3, 0xbe, 0x35, 0xdd, 0xb1, 0x3e,
  0xc0, 0x8d, 0x26, 0x3e, 0x37, 0x3d, 0x0f, 0x3f, 0x28, 0x3c, 0x8c, 0x3f,
  0x58, 0xb0, 0x28, 0xbe, 0x92, 0x01, 0xd0, 0xbe, 0x48, 0x72, 0xb3, 0xbe,
  0x55, 0xaa, 0x04, 0xbe, 0xe3, 0x8e, 0xad, 0x3c, 0x7d, 0x52, 0xdc, 0x3d,
  0x98, 0x87, 0x8a, 0xbe, 0x97, 0x20, 0x26, 0xbe, 0x3b, 0xd1, 0x19, 0xbe,
  0xca, 0x47, 0x8a, 0xbe, 0xea, 0xf5, 0x87, 0x3e, 0xb3, 0x42, 0x2e, 0xbe,
  0x0e, 0x0b, 0x3d, 0x3c, 0x5f, 0x08, 0x15, 0x3e, 0xdd, 0x90, 0xe6, 0x3e,
  0xa9, 0xe8, 0xb6, 0x3f, 0x7a, 0x40, 0xe4, 0xbd, 0xd9, 0x98, 0x82, 0x39,
  0x41, 0xdb, 0x89, 0xbe, 0xd2, 0x81, 0xdb, 0xbd, 0x6b, 0x25, 0xfe, 0x3d,
  0xd6, 0x68, 0x89, 0xbe, 0x0e, 0x9f, 0x5b, 0x3e, 0x41, 0x75, 0xf6, 0xbe,
  0xd3, 0x5f, 0xa7, 0xbe, 0x89, 0xdd, 0x62, 0xbe, 0x16, 0xbd, 0x88, 0x3d,
  0x7a, 0x08, 0xfa, 0x3d, 0xb0, 0xca, 0xc9, 0x3d, 0xb0, 0xcc, 0xa5, 0x3e,
  0xbb, 0x4e, 0x4e, 0x3f, 0xb4, 0xb4, 0x05, 0x40, 0xb9, 0x4f, 0x9f, 0xbe,
  0xd4, 0x54, 0x15, 0x3f, 0x2a, 0x0b, 0x8d, 0xbe, 0xff, 0x18, 0x4f, 0xbe,
  0xd3, 0x62, 0x58, 0xbd, 0xf8, 0xf4, 0x63, 0xbe, 0xed, 0x72, 0x5b, 0x3e,
  0x48, 0xf9, 0xaa, 0xbe, 0xff, 0x49, 0x26, 0xbe, 0x90, 0xbc, 0xb5, 0xbe,
  0xd8, 0x32, 0x74, 0xbd, 0x7f, 0xd3, 0x93, 0xbe, 0x5e, 0x6e, 0x9c, 0x3d,
  0x72, 0x72, 0x3d, 0x3e, 0x5a, 0x7b, 0x65, 0x3e, 0xf7, 0x46, 0xc2, 0x3f,
  0x2c, 0xa5, 0xb7, 0xbd, 0xf3, 0xb5, 0x3c, 0x3d, 0x56, 0x21, 0x73, 0xbd,
  0xcc, 0xd6, 0x08, 0xbe, 0xb8, 0xb2, 0xdd, 0x3b, 0x23, 0x13, 0x58, 0xbc,
  0x75, 0x30, 0x8e, 0xbe, 0xbe, 0xc2, 0xbc, 0xbe, 0x4c, 0xbf, 0x29, 0xbd,
  0x19, 0x7e, 0xc2, 0xbe, 0xb3, 0x33, 0xd1, 0xbc, 0xc8, 0xde, 0x69, 0xbe,
  0x75, 0x1b, 0x46, 0x3e, 0x76, 0x76, 0x80, 0xbb, 0xc3, 0x42, 0xed, 0x3c,
  0xcf, 0xd0, 0xbb, 0x3f, 0xe5, 0x9f, 0x83, 0xbe, 0xbf, 0xbf, 0xda, 0x3c,
  0xcd, 0x5c, 0x12, 0xbe, 0x82, 0x62, 0x80, 0xbe, 0xb8, 0xfd, 0x54, 0xbd,
  0x22, 0x39, 0x29, 0xbe, 0x31, 0xbb, 0x70, 0x3e, 0xd5, 0x49, 0xd5, 0xbe,
  0x52, 0xcf, 0xd0, 0xbd, 0x5c, 0xb9, 0x47, 0xbe, 0x9d, 0x25, 0xcf, 0xbd,
  0xd3, 0x02, 0x1d, 0xbe, 0xd1, 0xe1, 0xd5, 0x3d, 0xd1, 0x61, 0x09, 0xbe,
  0x9d, 0xaa, 0xfd, 0x3b, 0x0d, 0x22, 0x8c, 0xbe, 0x8f, 0x17, 0x86, 0xbe,
  0xd0, 0x38, 0xbc, 0x3e, 0xaa, 0xec, 0xf4, 0xbe, 0xf1, 0xec, 0x80, 0x3c,
  0x3c, 0x3f, 0x31, 0xbe, 0x3c, 0xc4, 0xc7, 0x3b, 0x75, 0xad, 0xbe, 0x3c,
  0xf0, 0x11, 0x86, 0xbe, 0x5b, 0x4f, 0xae, 0xbe, 0xf5, 0x27, 0x92, 0xbe,
  0x15, 0x31, 0x2a, 0x3d, 0x9d, 0x66, 0x99, 0xbe, 0x49, 0x9e, 0x84, 0x3d,
  0x7a, 0x02, 0xdb, 0xbd, 0x66, 0x43, 0x01, 0xbe, 0x17, 0x6a, 0x3a, 0x3f,
  0x29, 0xd3, 0xc4, 0xbc, 0x5e, 0xdb, 0x6a, 0xbd, 0xee, 0x77, 0x20, 0xbe,
  0xb3, 0x41, 0x45, 0x39, 0xb3, 0xda, 0x58, 0xbd, 0x8b, 0xa0, 0xc3, 0xbe,
  0xdb, 0x03, 0x0b, 0x3d, 0xcf, 0xb7, 0x28, 0xbe, 0x80, 0xa6, 0x84, 0xbe,
  0x8d, 0x15, 0x14, 0x3e, 0x53, 0x78, 0x45, 0x3d, 0x80, 0x46, 0xdb, 0xbe,
  0xe1, 0xeb, 0xdc, 0x3b, 0x3b, 0x71, 0x8f, 0xbe, 0x5f, 0x89, 0x14, 0x3d,
  0x52, 0x64, 0x36, 0x3f, 0x3a, 0x96, 0x42, 0xbc, 0x0b, 0xe2, 0xdb, 0xbd,
  0x85, 0x91, 0x52, 0xbe, 0x61, 0xbb, 0xa5, 0x3c, 0xc6, 0xe7, 0x75, 0xbe,
  0xe8, 0xec, 0x9e, 0xbe, 0x8c, 0x35, 0xae, 0xbe, 0xc7, 0x6c, 0x3a, 0xbe,
  0x39, 0xea, 0x26, 0xbe, 0xf5, 0x16, 0x80, 0x3b, 0x01, 0x47, 0x8e, 0xbe,
  0xc3, 0xa4, 0xad, 0xba, 0x43, 0x82, 0x9f, 0x3c, 0x7f, 0x1f, 0x83, 0xbd,
  0x37, 0xf5, 0x77, 0x3d, 0xb1, 0x99, 0x12, 0x3f, 0x30, 0x5e, 0x8c, 0x3d,
  0xe2, 0xa8, 0xb4, 0x3d, 0x7e, 0xd2, 0x3d, 0xbe, 0xd0, 0x47, 0xbe, 0xbc,
  0xbb, 0x45, 0x0f, 0xbe, 0x0d, 0xb8, 0x77, 0xbd, 0x61, 0x8d, 0x65, 0xbe,
  0x68, 0xe5, 0xbb, 0xbd, 0xff, 0x6a, 0xcb, 0xbd, 0xaa, 0x7c, 0xe8, 0xbc,
  0x4a, 0x70, 0xab, 0xbe, 0x0c, 0x9f, 0xb0, 0x3d, 0x55, 0x36, 0x7f, 0xbe,
  0xc2, 0xe6, 0x8c, 0xbc, 0xe8, 0x69, 0x60, 0x3b, 0x56, 0xf1, 0xf7, 0x3e,
  0x49, 0x23, 0x02, 0x3e, 0x90, 0x44, 0x06, 0xbd, 0xb4, 0x17, 0x80, 0xbe,
  0x9a, 0x04, 0x24, 0xbe, 0xd9, 0xb6, 0x2f, 0xbe, 0x28, 0x24, 0x59, 0x3e,
  0x85, 0x10, 0x2f, 0x3d, 0x96, 0x6f, 0x00, 0xbc, 0x0a, 0x55, 0x60, 0xbe,
  0x51, 0xf2, 0xf8, 0x3c, 0xd1, 0x0d, 0x59, 0x3d, 0xfa, 0xa9, 0xfa, 0x3e,
  0xba, 0xbb, 0x80, 0x3d, 0x98, 0x12, 0x9a, 0xba, 0x29, 0x08, 0xa9, 0xbd,
  0x65, 0x8b, 0x65, 0x3e, 0x01, 0x76, 0x27, 0x3e, 0x31, 0x9d, 0xe7, 0x3d,
  0x5e, 0x5f, 0x0a, 0xbc, 0x6c, 0x1d, 0x7c, 0xbe, 0xb7, 0x92, 0xcb, 0xbd,
  0x32, 0xe8, 0x9c, 0x3e, 0x73, 0x91, 0xe8, 0x3d, 0x11, 0xd6, 0xf0, 0x3b,
  0xfb, 0x09, 0x6c, 0xbd, 0x0d, 0xe6, 0xdc, 0xbc, 0x45, 0x38, 0xb4, 0x3e,
  0x8b, 0xa1, 0x52, 0x3e, 0x26, 0x0b, 0x8a, 0x3d, 0xe8, 0x09, 0xd8, 0xb9,
  0x9b, 0x7a, 0x73, 0x3e, 0xcd, 0x7b, 0x98, 0x3e, 0x0c, 0xf7, 0xb4, 0x3d,
  0x6a, 0x84, 0x46, 0x3e, 0x05, 0x30, 0x28, 0x3d, 0xd5, 0x63, 0xcf, 0xbe,
  0x0c, 0x0c, 0xf3, 0x3d, 0xb6, 0xa7, 0xfe, 0x3e, 0x6c, 0xed, 0xbb, 0xbd,
  0x1a, 0xc2, 0x25, 0x3e, 0xf4, 0x99, 0x46, 0xbd, 0xc5, 0x3d, 0xab, 0xbd,
  0x6c, 0x71, 0xae, 0x3e, 0xff, 0xcb, 0x0c, 0x3e, 0x4f, 0x23, 0xbc, 0x3e,
  0xe6, 0x6f, 0xcd, 0x3c, 0x1b, 0x4c, 0xd3, 0x3d, 0xff, 0x43, 0x58, 0xbe,
  0xbe, 0x77, 0x15, 0x3e, 0xd1, 0x10, 0xd8, 0x3d, 0x2b, 0xb4, 0xfa, 0xbc,
  0x60, 0x41, 0xd1, 0xbc, 0x76, 0x0a, 0x8a, 0x3e, 0x34, 0xa5, 0x13, 0x3e,
  0x54, 0x92, 0xdc, 0xbd, 0xa1, 0xd4, 0xd6, 0x3d, 0x41, 0x57, 0xcc, 0xbc,
  0x2e, 0xfb, 0x27, 0xbe, 0xc4, 0x10, 0x9c, 0x3e, 0xac, 0x6c, 0xfe, 0xbd,
  0xf2, 0x1d, 0x22, 0x3e, 0xfb, 0x3a, 0x29, 0x3d, 0xb1, 0x6c, 0x42, 0xbe,
  0xa1, 0xfc, 0xe3, 0x3e, 0x36, 0x55, 0xef, 0xbd, 0xba, 0x59, 0x56, 0xbd,
  0x27, 0x50, 0xb0, 0xbc, 0x17, 0x2a, 0x8d, 0x3d, 0xf4, 0x55, 0xb0, 0xbd,
  0xf8, 0x3b, 0xca, 0xbe, 0x61, 0x84, 0xd7, 0xbd, 0xb7, 0x56, 0xb3, 0xbc,
  0xe7, 0xa4, 0x0a, 0x3e, 0x69, 0xb8, 0x04, 0xbd, 0x76, 0xc4, 0x4a, 0xbe,
  0xb9, 0x0f, 0xf5, 0xbd, 0x09, 0xc6, 0xf8, 0x3c, 0x9c, 0x0f, 0x94, 0xbe,
  0xee, 0x38, 0x1a, 0xbe, 0xc1, 0xe0, 0x3d, 0x3f, 0x7f, 0x8e, 0xfe, 0x3d,
  0xa3, 0xb2, 0x35, 0x3b, 0x97, 0xbe, 0x2b, 0x3e, 0x33, 0xe6, 0xb0, 0xbd,
  0xc4, 0x7a, 0x1d, 0xbe, 0xed, 0x18, 0x85, 0xbe, 0x4a, 0x73, 0x7b, 0xbd,
  0x15, 0x92, 0x67, 0xbe, 0xab, 0xf6, 0x87, 0x3e, 0xd9, 0x5a, 0xeb, 0x3e,
  0x48, 0xb7, 0xa7, 0xbe, 0x29, 0x72, 0x35, 0x3d, 0x27, 0x45, 0x01, 0xbe,
  0xa4, 0x12, 0x8d, 0xbe, 0x1c, 0xf5, 0xc4, 0x3d, 0xb4, 0x3f, 0x21, 0x3f,
  0x16, 0xc6, 0xa6, 0x3e, 0x70, 0x90, 0x54, 0x3d, 0xe1, 0xbd, 0x97, 0x3e,
  0x15, 0x79, 0x6e, 0x3d, 0xbb, 0x77, 0xa1, 0xbe, 0xf2, 0x60, 0x9e, 0xbe,
  0x35, 0x24, 0x5a, 0x3e, 0xa2, 0xba, 0xf9, 0xbd, 0xc5, 0x8c, 0xba, 0xbd,
  0x6b, 0x3f, 0xb0, 0x3d, 0xaa, 0x88, 0x53, 0xbe, 0xa2, 0x07, 0x0b, 0xbe,
  0x55, 0x54, 0x1f, 0x3e, 0x01, 0xa4, 0xb8, 0xbd, 0xf3, 0x74, 0x0a, 0x3d,
  0x4a, 0x6d, 0x0a, 0x3f, 0x70, 0xde, 0xb7, 0x3d, 0x77, 0x64, 0x3e, 0xbe,
  0x65, 0x6d, 0xa7, 0x3e, 0xa3, 0xd1, 0x2f, 0xbe, 0x10, 0xcd, 0x1f, 0xbe,
  0xad, 0x59, 0xe3, 0x3c, 0x7e, 0x72, 0x6f, 0x3d, 0x68, 0x00, 0x19, 0x3d,
  0x13, 0xdc, 0x66, 0xbd, 0xef, 0xe0, 0x1e, 0xbe, 0xf7, 0xfc, 0x66, 0xbd,
  0x97, 0xef, 0xfe, 0x3d, 0x85, 0x1f, 0x15, 0x3e, 0x64, 0x53, 0x9a, 0xbe,
  0xb7, 0xb1, 0x4c, 0x3e, 0xbb, 0xcf, 0x4b, 0x3f, 0x1a, 0xc1, 0xd3, 0xbd,
  0x7f, 0x5f, 0x35, 0xbe, 0x3f, 0x3a, 0x46, 0xbd, 0xed, 0xdc, 0x94, 0x3c,
  0xdc, 0x20, 0x9f, 0xbb, 0x31, 0xd1, 0x84, 0x3d, 0x71, 0x55, 0x8f, 0x3d,
  0xa1, 0xf6, 0x2c, 0x3c, 0xe2, 0xa9, 0x8e, 0xbe, 0x95, 0x0c, 0x5f, 0xbe,
  0x89, 0x62, 0x9a, 0xbd, 0x56, 0x1e, 0xee, 0xbd, 0xdf, 0x90, 0xd5, 0x3b,
  0x3c, 0x70, 0xf3, 0xbd, 0x23, 0xdf, 0x15, 0xbe, 0x76, 0x7c, 0xa3, 0x3e,
  0x90, 0x20, 0x98, 0xbc, 0x1b, 0x14, 0x99, 0xbe, 0x6b, 0x07, 0xbd, 0xbc,
  0xe7, 0xba, 0x8b, 0x3d, 0xca, 0xd2, 0xcb, 0xbe, 0x39, 0xcd, 0x55, 0xbd,
  0xfd, 0x66, 0xcf, 0x3c, 0xcb, 0x41, 0xae, 0x3d, 0xf7, 0x75, 0xa4, 0x3e,
  0x2f, 0x06, 0x70, 0xbe, 0x98, 0x10, 0x86, 0xbe, 0xc8, 0x90, 0x95, 0xbd,
  0x12, 0xf3, 0x55, 0x3e, 0x97, 0x36, 0xde, 0xbd, 0x3c, 0x37, 0x4f, 0xbe,
  0x84, 0x6f, 0x85, 0xbd, 0x44, 0xd0, 0x98, 0xbd, 0x98, 0x12, 0x29, 0xbe,
  0x45, 0xcb, 0xf2, 0xbc, 0xad, 0xd3, 0xe8, 0x3d, 0x34, 0x71, 0xd6, 0xbd,
  0xc1, 0x42, 0x36, 0xbe, 0xec, 0xfc, 0x95, 0xbd, 0xe4, 0xd3, 0xfa, 0xbd,
  0x76, 0x65, 0x14, 0x3e, 0xac, 0x21, 0xc8, 0xbd, 0x4c, 0xe1, 0x03, 0xbe,
  0x87, 0xd9, 0xe3, 0xbd, 0x7e, 0xc0, 0xc9, 0x3e, 0x6e, 0xe4, 0x31, 0xbe,
  0x2b, 0x99, 0x86, 0xbd, 0x72, 0x15, 0x91, 0x3f, 0xa2, 0x92, 0x36, 0xbd,
  0xdd, 0xc8, 0x08, 0x3e, 0xcb, 0x21, 0xc2, 0xbd, 0x1a, 0xae, 0x8f, 0xbd,
  0x49, 0xf3, 0x40, 0x3e, 0x84, 0x7f, 0xd0, 0xbc, 0xa6, 0xdb, 0xaa, 0xbd,
  0x5c, 0xe1, 0x49, 0xbe, 0x9d, 0x43, 0x7f, 0xbe, 0xa2, 0x88, 0x01, 0xbe,
  0x3d, 0x36, 0xad, 0x3d, 0xae, 0x38, 0x9b, 0xbe, 0xee, 0x40, 0x98, 0x3e,
  0x47, 0xc8, 0xed, 0x3c, 0xa4, 0x73, 0xc7, 0x3e, 0x9c, 0x42, 0x5c, 0x3f,
  0x14, 0x80, 0x61, 0xbc, 0x53, 0x23, 0x83, 0x3c, 0x35, 0x34, 0xad, 0xbe,
  0xc9, 0xa4, 0x30, 0xbe, 0x14, 0x04, 0xe9, 0x3d, 0xaa, 0xe2, 0x5c, 0x3c,
  0x83, 0x1c, 0x6a, 0xbe, 0x9d, 0xbb, 0x91, 0xbe, 0x7b, 0x15, 0x85, 0xbe,
  0x97, 0x9a, 0x5d, 0xbe, 0xce, 0xb8, 0x6c, 0x3d, 0xfc, 0x17, 0x1c, 0x3e,
  0x59, 0x22, 0xe2, 0x3e, 0xfb, 0xdf, 0xe7, 0xbd, 0x9c, 0xa2, 0xf7, 0x3e,
  0xf0, 0x14, 0x7d, 0x3f, 0xeb, 0xb5, 0xa3, 0xbd, 0x06, 0x0a, 0x10, 0x3e,
  0xf2, 0x91, 0xb1, 0xbe, 0xf5, 0xd4, 0x95, 0x3b, 0xa0, 0x5a, 0xc7, 0x3d,
  0x00, 0xa4, 0x1f, 0x3d, 0x33, 0xaa, 0xfc, 0x3d, 0x67, 0xae, 0xd7, 0xbd,
  0x20, 0xb2, 0xa4, 0xbe, 0x59, 0x9a, 0xd0, 0xbe, 0x5f, 0x71, 0xe2, 0x3d,
  0xf4, 0x6a, 0xcd, 0x3d, 0xed, 0xf4, 0x3d, 0x3e, 0xe6, 0x5a, 0x55, 0xbe,
  0x75, 0x52, 0xda, 0x3e, 0xf3, 0x50, 0xbc, 0x3f, 0x32, 0x98, 0x92, 0xbe,
  0xe9, 0x4b, 0x30, 0x3e, 0x6b, 0x48, 0x37, 0xbe, 0x5a, 0xeb, 0xc5, 0xbc,
  0xa0, 0xbe, 0x1c, 0xbe, 0x5d, 0xbb, 0x6d, 0xbe, 0xe2, 0x37, 0x05, 0xbc,
  0x59, 0xad, 0x4b, 0xbe, 0x33, 0x61, 0x03, 0xbf, 0x72, 0x81, 0x6d, 0xbe,
  0xe8, 0x8b, 0xf4, 0x3d, 0xe2, 0x82, 0x2f, 0x3d, 0x98, 0x7a, 0xd3, 0x3e,
  0xbe, 0xc3, 0x0e, 0x3c, 0xc6, 0x0b, 0xc6, 0x3e, 0x10, 0x05, 0xb3, 0x3f,
  0xc2, 0x2e, 0x75, 0xbe, 0x4b, 0x56, 0xbe, 0xbd, 0x1b, 0x38, 0xa4, 0xbe,
  0xfe, 0xdc, 0xfe, 0xbd, 0xde, 0xc0, 0xc3, 0x3c, 0x95, 0xac, 0xcf, 0x3d,
  0xe6, 0xfd, 0x48, 0x3e, 0xa7, 0x05, 0xc9, 0xbe, 0x8f, 0x58, 0xd4, 0xbe,
  0x5b, 0xe6, 0xa7, 0xbe, 0x89, 0x5c, 0x74, 0x3b, 0xb3, 0x9f, 0xeb, 0x3d,
  0x47, 0xd7, 0xea, 0x3e, 0x53, 0xab, 0x11, 0xbe, 0x76, 0x08, 0xc9, 0x3d,
  0xfa, 0x38, 0x9d, 0x3f, 0x44, 0x50, 0x28, 0xbe, 0x82, 0x23, 0x85, 0xbd,
  0x32, 0xcf, 0xac, 0xbe, 0x73, 0x98, 0xa7, 0xbe, 0x83, 0x23, 0xcb, 0x3c,
  0x56, 0x5a, 0xa7, 0x3d, 0x0f, 0xb8, 0x87, 0x3b, 0xa4, 0x00, 0xaf, 0xbe,
  0x25, 0xa2, 0x9d, 0xbe, 0xb6, 0xc8, 0xb2, 0xbe, 0x05, 0x5d, 0x26, 0xbe,
  0xbe, 0xca, 0xe5, 0x3d, 0x20, 0xe8, 0xe4, 0x3e, 0x31, 0x9c, 0x6a, 0x3c,
  0x0d, 0xdf, 0x3d, 0x3e, 0xc8, 0xd0, 0xd4, 0xbd, 0xe4, 0x60, 0xa3, 0xbe,
  0x93, 0xf2, 0x83, 0xbd, 0xf0, 0x44, 0x8e, 0xbe, 0xe1, 0x68, 0x61, 0xbe,
  0x98, 0x2c, 0x60, 0x3d, 0x07, 0x54, 0xc9, 0x3d, 0xbc, 0x4e, 0x7b, 0x3d,
  0xb1, 0x63, 0xfd, 0xbe, 0xe1, 0xc4, 0x9f, 0xbe, 0xab, 0x59, 0x7e, 0xbe,
  0xc7, 0x04, 0x96, 0x3e, 0x99, 0xdf, 0x6e, 0xbe, 0xc9, 0xff, 0xdd, 0x3e,
  0x70, 0x5c, 0xbc, 0x3e, 0x86, 0x01, 0x19, 0xbe, 0xd8, 0x30, 0x25, 0xbf,
  0x8d, 0xa9, 0x92, 0xbe, 0x08, 0x3d, 0x03, 0x3f, 0xaa, 0xe8, 0x58, 0xbe,
  0x16, 0x6e, 0x5a, 0xbe, 0x61, 0x34, 0x78, 0x3d, 0xa2, 0x94, 0x3c, 0xbe,
  0xfb, 0x86, 0x70, 0x3e, 0x2e, 0x70, 0x32, 0xbd, 0x69, 0x2f, 0x25, 0xbf,
  0xdb, 0xd7, 0xa2, 0x3e, 0x0e, 0x00, 0x01, 0xbd, 0xab, 0x4f, 0x16, 0xbf,
  0xc0, 0x69, 0xc2, 0x3e, 0x0d, 0xc8, 0x39, 0x3e, 0xb3, 0x1c, 0x5f, 0x3e,
  0x4b, 0xfd, 0xc1, 0xbd, 0xe8, 0x84, 0xae, 0xbd, 0x24, 0x15, 0x8b, 0x3e,
  0xd1, 0x53, 0x2c, 0xbe, 0x2e, 0xec, 0xda, 0xbe, 0xdf, 0x3d, 0xaa, 0x3c,
  0xf3, 0xd4, 0x83, 0xbe, 0x84, 0xa4, 0xac, 0x3d, 0x66, 0x6a, 0x01, 0x3e,
  0x9c, 0x85, 0xc9, 0xbd, 0x25, 0xd3, 0x32, 0xbe, 0x28, 0xbe, 0x11, 0xbe,
  0x9a, 0x75, 0x9b, 0x3d, 0x2b, 0xb9, 0x64, 0xbc, 0x6f, 0xcb, 0x8b, 0x3e,
  0x9a, 0x03, 0x56, 0x3d, 0xe6, 0xf9, 0x7a, 0xbe, 0x25, 0x91, 0x08, 0x3e,
  0xf9, 0x3e, 0xbb, 0xbd, 0x67, 0xf9, 0xd5, 0x3a, 0xfd, 0x5d, 0x51, 0xbe,
  0x1f, 0x0a, 0x91, 0x3e, 0xce, 0x71, 0x55, 0xbe, 0x3b, 0xae, 0x12, 0x3e,
  0x1c, 0xbe, 0xdb, 0x3c, 0xdc, 0x0f, 0x58, 0xba, 0xf2, 0xc0, 0x46, 0xbd,
  0xab, 0xff, 0xff, 0x3d, 0x2f, 0x7e, 0xe5, 0x3d, 0x65, 0xc9, 0xf6, 0x3d,
  0x62, 0x99, 0x73, 0x3e, 0xea, 0x10, 0xcd, 0x3d, 0xd8, 0x92, 0x80, 0xbe,
  0xc7, 0x26, 0x05, 0x3e, 0x24, 0x6b, 0x17, 0x3e, 0x58, 0xa1, 0x14, 0x3c,
  0xb6, 0x07, 0x7e, 0xbe, 0x82, 0xd2, 0x86, 0x3d, 0xc4, 0x5d, 0x94, 0x3c,
  0xfd, 0xe4, 0x8f, 0xbd, 0x36, 0x25, 0x21, 0x3d, 0x29, 0xdc, 0x92, 0xbe,
  0xf9, 0x74, 0x09, 0xbe, 0x38, 0x49, 0x49, 0x3e, 0xe8, 0xee, 0xa3, 0xbd,
  0x17, 0x4c, 0xdf, 0xbb, 0x49, 0x2d, 0x83, 0x3d, 0x07, 0x46, 0xb7, 0x3c,
  0xea, 0xc2, 0xa9, 0xbd, 0x52, 0xbc, 0xff, 0x3d, 0x60, 0x9a, 0xe9, 0x3e,
  0x33, 0x9d, 0x41, 0x3d, 0x8d, 0x95, 0xed, 0xbe, 0x54, 0xef, 0xc1, 0x3b,
  0x2d, 0xfa, 0x35, 0xbe, 0x24, 0x66, 0xdd, 0x3d, 0x4b, 0x34, 0xff, 0xbc,
  0x26, 0xfe, 0x5b, 0xbe, 0x06, 0x27, 0x8c, 0xbc, 0x0d, 0x6c, 0xca, 0x3c,
  0xb5, 0x1d, 0x6c, 0xbd, 0x01, 0x39, 0xa3, 0x3e, 0xd0, 0x96, 0xee, 0x3d,
  0xdc, 0x7d, 0xb2, 0x3e, 0x0a, 0x77, 0xb0, 0xbe, 0x25, 0x41, 0xa5, 0xbd,
  0x6e, 0xb7, 0xc3, 0x3e, 0x94, 0x67, 0x76, 0xbe, 0xee, 0xca, 0x1e, 0x3d,
  0x83, 0xa9, 0x43, 0x3e, 0xe2, 0x67, 0xb0, 0x3d, 0x1f, 0xae, 0x43, 0x3d,
  0x4d, 0x70, 0x60, 0x3d, 0x14, 0xf5, 0x9a, 0xbe, 0xf3, 0x78, 0xb8, 0x3d,
  0x19, 0xfa, 0x01, 0xbd, 0x6e, 0x7b, 0xae, 0xbe, 0xe2, 0x77, 0x9d, 0x3e,
  0x50, 0xec, 0x64, 0x3e, 0x3b, 0x76, 0x5a, 0x3e, 0x43, 0x8f, 0x2f, 0x3e,
  0xa7, 0x2f, 0xe1, 0xbd, 0x82, 0x73, 0x27, 0x3e, 0xa9, 0x98, 0x8a, 0xbe,
  0x66, 0xd6, 0xff, 0xbd, 0xf6, 0x23, 0x8d, 0x3d, 0x08, 0xeb, 0x69, 0x3d,
  0xca, 0xf0, 0x92, 0xbd, 0xd3, 0x0d, 0x11, 0xbd, 0xcf, 0x7a, 0xc2, 0xbe,
  0xbb, 0xc3, 0x4d, 0xbd, 0x00, 0xc6, 0x28, 0x3c, 0x8f, 0x77, 0x17, 0xbe,
  0x78, 0x83, 0xc2, 0x3a, 0xde, 0x94, 0x89, 0x3d, 0x5b, 0x4f, 0x98, 0x3c,
  0x9e, 0x3f, 0x94, 0x3d, 0x97, 0xae, 0x5a, 0xbd, 0x92, 0x47, 0xcd, 0x3b,
  0x6d, 0xdf, 0xe4, 0xbc, 0x18, 0x58, 0x3f, 0x3e, 0x66, 0xfd, 0x11, 0xbd,
  0x14, 0xc1, 0xff, 0xbd, 0x38, 0x11, 0x23, 0xbe, 0x2e, 0x24, 0x8e, 0xbe,
  0xb5, 0xac, 0x57, 0xbe, 0x2b, 0xee, 0x16, 0xbe, 0x18, 0x8a, 0x10, 0x3d,
  0x3e, 0xfb, 0x38, 0xbd, 0xc3, 0x76, 0xec, 0x3d, 0x2f, 0xf3, 0x5f, 0xbd,
  0x43, 0x4e, 0x00, 0xbc, 0xfe, 0x93, 0xf2, 0xbd, 0xca, 0x6a, 0xb1, 0x3e,
  0x25, 0x8c, 0x9c, 0x3e, 0xfb, 0x20, 0x26, 0xbd, 0x50, 0x06, 0xb0, 0xbc,
  0x14, 0x19, 0xd1, 0x3d, 0xff, 0xbe, 0xa5, 0xbd, 0xbb, 0x4d, 0x6c, 0x3d,
  0xcd, 0x98, 0x51, 0xbd, 0x67, 0x8d, 0x59, 0xbd, 0x7d, 0x46, 0x3c, 0x3e,
  0xaf, 0x79, 0x42, 0xbe, 0x88, 0x16, 0x28, 0xbc, 0x63, 0x40, 0xfb, 0x3d,
  0xdf, 0x99, 0x42, 0xbe, 0x78, 0x9f, 0xbb, 0x3d, 0x3f, 0x19, 0x42, 0xbe,
  0x1c, 0x21, 0xde, 0x3d, 0xe3, 0x34, 0x66, 0xbe, 0xf6, 0x53, 0x96, 0xbd,
  0x34, 0xdd, 0xdd, 0x3d, 0x53, 0x63, 0xa9, 0xbc, 0x1b, 0x91, 0xd9, 0xbd,
  0x4a, 0xba, 0xc9, 0x3d, 0x38, 0xd4, 0x18, 0xbe, 0x12, 0x6a, 0x4d, 0xbe,
  0x5e, 0x1f, 0x8e, 0xbd, 0x88, 0x20, 0x5d, 0x3e, 0xab, 0x45, 0xf1, 0xbd,
  0x58, 0xce, 0x03, 0x3e, 0x81, 0xbb, 0x05, 0x3d, 0x86, 0x14, 0x29, 0xbd,
  0x8a, 0x4c, 0xad, 0x3c, 0x8d, 0xcc, 0x20, 0xbd, 0x6f, 0x79, 0x04, 0x3e,
  0x9a, 0xb9, 0x29, 0xbd, 0x40, 0x15, 0x2e, 0xbe, 0x5d, 0x5f, 0x10, 0xbe,
  0xd7, 0x69, 0x3a, 0x3e, 0x3a, 0x58, 0x33, 0xbc, 0x2f, 0x1d, 0xa5, 0xbd,
  0x10, 0x3c, 0x4e, 0xbe, 0x6c, 0x7d, 0x67, 0xbe, 0x04, 0xdc, 0x8c, 0x3d,
  0xb9, 0xfb, 0x74, 0xbe, 0xff, 0x57, 0x18, 0x3e, 0x79, 0xa7, 0x46, 0xbd,
  0x55, 0xae, 0xc4, 0x3d, 0x93, 0x7a, 0xb2, 0x3c, 0x4d, 0xba, 0x17, 0x3c,
  0xab, 0xb3, 0x14, 0x3e, 0x43, 0x67, 0xb7, 0xbd, 0xce, 0xdf, 0x86, 0x3d,
  0x37, 0x0e, 0x31, 0xbe, 0xc9, 0x94, 0x7a, 0x3d, 0xda, 0xb5, 0x05, 0xbe,
  0x1f, 0x25, 0x35, 0xbe, 0xd0, 0xcd, 0x40, 0xbe, 0x73, 0x76, 0x76, 0xbe,
  0xdf, 0xfa, 0xd5, 0x3d, 0x07, 0x74, 0x55, 0xbd, 0xb3, 0xdd, 0xfe, 0xbd,
  0x84, 0x83, 0xcd, 0xbd, 0xad, 0x4a, 0xbc, 0xbc, 0x92, 0x13, 0x7e, 0x3d,
  0x45, 0xeb, 0x2b, 0xbc, 0x32, 0x6c, 0x1a, 0xbd, 0x9b, 0x36, 0x03, 0xbe,
  0x58, 0x57, 0xd6, 0xbd, 0x17, 0x94, 0xd3, 0x3d, 0xc1, 0x24, 0x1b, 0xbc,
  0x58, 0xdf, 0x94, 0xbc, 0xdb, 0x07, 0x10, 0xbe, 0x00, 0x18, 0x5e, 0xbe,
  0x13, 0x10, 0x80, 0xbe, 0x5e, 0x8c, 0x9d, 0x3d, 0x32, 0xff, 0x18, 0x3d,
  0x12, 0x80, 0xde, 0xbd, 0x2a, 0xc1, 0x24, 0xbe, 0x49, 0x3f, 0x0b, 0xbe,
  0x76, 0x3b, 0x04, 0x3c, 0x91, 0x23, 0x6c, 0xbe, 0x45, 0x24, 0x0f, 0xbe,
  0xb0, 0xc3, 0x92, 0xbd, 0x2f, 0x3f, 0x93, 0xbe, 0xe0, 0x65, 0x5b, 0x3d,
  0x87, 0x40, 0x0d, 0xbe, 0x94, 0x8a, 0x72, 0xbe, 0xfe, 0xd7, 0xcc, 0xbe,
  0x9b, 0xa0, 0x93, 0xbd, 0x46, 0x78, 0xf8, 0xbd, 0x99, 0x83, 0x8e, 0x3d,
  0x23, 0x08, 0x0b, 0xbe, 0x73, 0xe9, 0x3c, 0xbe, 0x43, 0x6b, 0x82, 0xbe,
  0x40, 0xee, 0x92, 0xbe, 0xf8, 0xbe, 0x29, 0x3d, 0x61, 0x03, 0xfb, 0x3d,
  0xbb, 0x98, 0xb1, 0xbe, 0xde, 0x18, 0x29, 0xbd, 0x40, 0x9e, 0x8a, 0xbc,
  0x33, 0xdc, 0x4f, 0xbe, 0xcf, 0xf1, 0x1c, 0x3f, 0x6a, 0xa7, 0x05, 0x3d,
  0x72, 0x52, 0x1e, 0xbd, 0x13, 0x24, 0xc1, 0xbd, 0x4d, 0x42, 0x8e, 0xb8,
  0xa3, 0xca, 0x8f, 0x3e, 0xd4, 0x56, 0x49, 0x3e, 0xbd, 0xf0, 0x0d, 0xbe,
  0x6a, 0x7d, 0x87, 0xbc, 0x9f, 0x6e, 0xf8, 0x3d, 0x19, 0xd6, 0x19, 0xbe,
  0xb2, 0x7a, 0x94, 0xbe, 0xf4, 0x2d, 0x19, 0xbd, 0x13, 0x68, 0x0b, 0xbd,
  0x96, 0xef, 0x6d, 0xba, 0xb8, 0x01, 0x02, 0xbc, 0xcf, 0x78, 0xbd, 0x3e,
  0xc4, 0x13, 0x0c, 0x3d, 0x44, 0x1b, 0x90, 0xbd, 0x6f, 0x04, 0x5c, 0x3d,
  0xc6, 0x11, 0x41, 0xbe, 0xa1, 0x3f, 0xdf, 0x3e, 0x1b, 0x0c, 0x72, 0xbe,
  0x1d, 0x7a, 0x1e, 0xbe, 0xc2, 0xb9, 0xa8, 0xbe, 0xc8, 0x44, 0x9c, 0x3d,
  0x32, 0x9c, 0x4a, 0xbe, 0x53, 0x86, 0xec, 0xbe, 0x4e, 0x40, 0x36, 0x3e,
  0xa1, 0x5e, 0x25, 0xbd, 0x27, 0x3b, 0x27, 0xbc, 0x0c, 0x13, 0x53, 0xbd,
  0x61, 0xc1, 0xaf, 0x3e, 0xff, 0x6b, 0xe1, 0x3d, 0xfe, 0x06, 0xbf, 0xbd,
  0xe7, 0x73, 0x93, 0x3e, 0xc8, 0x7b, 0x9d, 0xbc, 0x7f, 0xe7, 0x0f, 0x3f,
  0xfd, 0xee, 0x26, 0x3f, 0xf8, 0xbe, 0x76, 0xbd, 0x92, 0xd0, 0x94, 0xbe,
  0xb6, 0x65, 0xb6, 0x3d, 0x91, 0xd9, 0x57, 0xbe, 0x5e, 0x55, 0x06, 0x3e,
  0x1d, 0x0f, 0x75, 0x3e, 0x72, 0xa8, 0x1d, 0xbd, 0xf1, 0x42, 0x1d, 0xbd,
  0xf5, 0x86, 0x5f, 0x3d, 0x09, 0x7c, 0x29, 0xbe, 0xb5, 0xb2, 0x36, 0xbd,
  0xcb, 0x94, 0xac, 0xbd, 0x20, 0x84, 0xf2, 0x3d, 0xb9, 0x2c, 0xc6, 0x3d,
  0xc6, 0x7f, 0x49, 0xbe, 0x13, 0x0c, 0xc9, 0x3e, 0x82, 0x4a, 0x2b, 0xbe,
  0x55, 0x72, 0x63, 0xbe, 0x13, 0xf5, 0x10, 0xbe, 0x89, 0xb0, 0xf1, 0x3c,
  0xf1, 0x9e, 0x37, 0x3e, 0xd7, 0xed, 0x8f, 0xbd, 0x77, 0xe8, 0x27, 0x3d,
  0x11, 0x9f, 0xa6, 0x3c, 0x07, 0x07, 0x66, 0xbd, 0x44, 0xcf, 0xc7, 0x3e,
  0x51, 0xcf, 0x89, 0x3e, 0xb6, 0xa5, 0xe7, 0xbd, 0xe2, 0x02, 0x2c, 0xbd,
  0x98, 0x82, 0x6a, 0x3d, 0x91, 0xad, 0xb6, 0x3e, 0x81, 0xb5, 0x01, 0x3f,
  0x39, 0x2b, 0x7c, 0x3d, 0xe1, 0xa8, 0x18, 0x3d, 0x7b, 0x85, 0x1e, 0xbd,
  0x7d, 0xc9, 0xba, 0xb9, 0x13, 0xe0, 0x0c, 0x3e, 0x22, 0xdd, 0x44, 0x3d,
  0x2f, 0x37, 0x66, 0xbd, 0x67, 0x92, 0xd4, 0x3c, 0xe2, 0x8b, 0xaf, 0x3d,
  0x3f, 0x3c, 0xff, 0x3e, 0x25, 0x4d, 0x1f, 0xbe, 0xe7, 0x5a, 0x3d, 0xbd,
  0xb3, 0x1d, 0xde, 0xbd, 0x7a, 0x43, 0xff, 0xbd, 0x3e, 0x00, 0xcf, 0x3e,
  0x71, 0x39, 0x84, 0x3e, 0x73, 0xdc, 0x1f, 0x3e, 0x08, 0x29, 0x19, 0xbe,
  0xa9, 0xa3, 0xea, 0x3d, 0x6f, 0x1f, 0x43, 0xbe, 0x44, 0xa6, 0xc7, 0x3d,
  0x13, 0x91, 0xf6, 0xbc, 0x5c, 0xb7, 0xe8, 0xbb, 0xfc, 0x92, 0x30, 0xbe,
  0xa5, 0x66, 0x4e, 0x3e, 0x6c, 0xa7, 0x1b, 0x3e, 0x88, 0x4e, 0xec, 0xbd,
  0xf3, 0xe3, 0x40, 0x3e, 0x0b, 0xf5, 0x05, 0x3d, 0xc3, 0x94, 0x3e, 0xbe,
  0xf8, 0xc2, 0xec, 0x3d, 0xba, 0x2e, 0x80, 0x3e, 0xa9, 0x6d, 0x49, 0x3d,
  0x40, 0x62, 0xb9, 0xbd, 0x3e, 0x34, 0x46, 0x3c, 0x96, 0xcb, 0x41, 0x40,
  0xc4, 0x97, 0xa4, 0xbe, 0x95, 0xe9, 0x10, 0x3f, 0x09, 0x60, 0xb3, 0xbe,
  0x1c, 0xd7, 0x3b, 0xbd, 0x2f, 0x9f, 0xb4, 0x3c, 0xed, 0x96, 0x87, 0xbd,
  0xd5, 0xb8, 0xf0, 0xbe, 0x73, 0xe6, 0x1c, 0xbf, 0xe4, 0x89, 0x64, 0xbe,
  0x30, 0x5e, 0xaf, 0xbd, 0xd9, 0x60, 0x86, 0xbd, 0x3c, 0xaf, 0x3c, 0xbe,
  0xaf, 0x27, 0xdf, 0x3e, 0x9d, 0x82, 0xa2, 0x3e, 0xa3, 0x7b, 0x21, 0x3f,
  0xcb, 0x19, 0x1c, 0x40, 0x7b, 0x65, 0x02, 0x3b, 0x6a, 0x9b, 0x2c, 0xbe,
  0x39, 0x50, 0xcf, 0xbc, 0x60, 0xdf, 0x3d, 0xbe, 0xba, 0x7d, 0x34, 0x3e,
  0xc9, 0x13, 0x8f, 0xbd, 0xbd, 0x91, 0xb2, 0x3e, 0x99, 0x93, 0x8b, 0xbe,
  0xbd, 0x94, 0x33, 0xbd, 0xfd, 0xe5, 0xa6, 0xbe, 0x62, 0xb6, 0x81, 0x3d,
  0x31, 0xcb, 0x61, 0x3b, 0x30, 0x59, 0x32, 0xbd, 0x51, 0x49, 0x1a, 0x3e,
  0xd5, 0x8c, 0x08, 0x3f, 0x60, 0x3a, 0x0f, 0x40, 0x54, 0xa1, 0x27, 0xbe,
  0x7e, 0x02, 0x26, 0x3f, 0x16, 0xa9, 0x97, 0xbc, 0x17, 0x46, 0x46, 0xbd,
  0xcf, 0x1c, 0xf1, 0x3d, 0xb1, 0x97, 0x90, 0xbe, 0x8a, 0xba, 0x00, 0x3f,
  0xe6, 0x08, 0x94, 0xbe, 0x3e, 0x59, 0x82, 0xbe, 0xf6, 0xed, 0xa0, 0xbe,
  0x48, 0xcd, 0xa8, 0xbd, 0x1f, 0x3d, 0xce, 0xbd, 0xe7, 0xa6, 0xd0, 0x3e,
  0x23, 0x4c, 0x53, 0x3e, 0x80, 0x61, 0x04, 0x3f, 0xac, 0x1f, 0x08, 0x40,
  0xf9, 0xa0, 0x2c, 0xbe, 0xf1, 0xb2, 0x90, 0x3e, 0xc3, 0x7c, 0xcb, 0xbd,
  0x0a, 0xdd, 0x2a, 0xbe, 0xc1, 0x51, 0x5f, 0x3d, 0x58, 0xdb, 0x62, 0xbe,
  0xed, 0x22, 0xdb, 0xbd, 0x8c, 0xdf, 0xb1, 0xbe, 0x39, 0x86, 0x0c, 0xbd,
  0xff, 0xfb, 0x84, 0xbe, 0x0a, 0xf0, 0xca, 0xbd, 0x2c, 0x94, 0xd2, 0x3c,
  0x5b, 0x2f, 0x6a, 0x3e, 0xb3, 0xe4, 0xda, 0x3d, 0x48, 0xa3, 0x9d, 0x3e,
  0x64, 0x1c, 0xcb, 0x3f, 0xe1, 0x16, 0x2c, 0x3d, 0x0d, 0x0d, 0x01, 0x3f,
  0x47, 0x16, 0xb3, 0xbe, 0x99, 0xfd, 0x2a, 0xbe, 0x1b, 0xd2, 0x11, 0x3d,
  0xea, 0x18, 0x59, 0xbe, 0xec, 0x89, 0x76, 0xbd, 0x91, 0xf0, 0x05, 0xbf,
  0xb5, 0x67, 0x58, 0xbe, 0xc3, 0x93, 0xa6, 0xbe, 0x93, 0xbf, 0x0e, 0xbd,
  0x28, 0x5f, 0xa8, 0xbc, 0x60, 0xc2, 0x8e, 0x3d, 0xdd, 0x3d, 0x61, 0xbe,
  0x7b, 0xb2, 0x21, 0xbb, 0x7a, 0x28, 0x18, 0x40, 0xa9, 0x02, 0xc2, 0x3c,
  0xfa, 0x04, 0x63, 0x3e, 0x92, 0x4c, 0xba, 0xbd, 0x62, 0x22, 0x01, 0xbe,
  0x97, 0x16, 0x1a, 0x3e, 0x7a, 0xc0, 0x39, 0xbd, 0x2c, 0x0c, 0x5a, 0xbd,
  0x93, 0x97, 0xf9, 0xbe, 0x3f, 0x23, 0x9f, 0xbd, 0x60, 0xb8, 0xad, 0xbe,
  0xff, 0x0f, 0xf7, 0xbd, 0xf0, 0x24, 0x66, 0xbe, 0x82, 0xcd, 0xc6, 0x3e,
  0x38, 0x14, 0xcb, 0xbd, 0xaf, 0x78, 0xce, 0x3e, 0xba, 0xed, 0xbf, 0xbe,
  0x25, 0xcc, 0xdf, 0xbe, 0xc8, 0x23, 0x48, 0xbd, 0xe6, 0xa6, 0xc4, 0xbe,
  0x35, 0xd0, 0x81, 0xbe, 0xfe, 0xa4, 0x14, 0x3d, 0x91, 0x83, 0x46, 0xbe,
  0xd5, 0x8d, 0x12, 0xbe, 0x84, 0xc4, 0x13, 0xbf, 0xdb, 0xd9, 0xb0, 0xbe,
  0x44, 0xbf, 0xd3, 0xbe, 0x3b, 0xba, 0xa2, 0xbe, 0x77, 0x12, 0x28, 0xbf,
  0xf5, 0x20, 0x0a, 0x3e, 0x69, 0x38, 0x54, 0x3e, 0x53, 0x11, 0x86, 0x3e,
  0x3e, 0xde, 0xc1, 0x3e, 0xcd, 0xf3, 0x87, 0xbd, 0x03, 0x85, 0x21, 0x3e,
  0x03, 0x9e, 0x08, 0xbd, 0xc8, 0x35, 0x8d, 0x3d, 0x9d, 0x5c, 0x58, 0x3e,
  0x08, 0x61, 0xe6, 0xbe, 0x91, 0xad, 0x34, 0x3e, 0x02, 0x46, 0x45, 0x3e,
  0xda, 0x29, 0x8c, 0xbe, 0xdc, 0x5e, 0x10, 0x3e, 0x1b, 0xe1, 0x26, 0xbe,
  0xa4, 0xb0, 0xcc, 0xbe, 0x21, 0x10, 0x24, 0x3f, 0xa2, 0xca, 0x0e, 0x3d,
  0x18, 0xbd, 0x15, 0x3e, 0x3d, 0x35, 0x61, 0x3e, 0x2a, 0xc2, 0x92, 0xbe,
  0x14, 0x6a, 0xbf, 0xbc, 0x02, 0xe0, 0xd1, 0xbe, 0xda, 0xb6, 0x4a, 0x3d,
  0x50, 0x29, 0x0a, 0x3e, 0xbe, 0xee, 0xa2, 0xbe, 0x86, 0x89, 0x0d, 0xbc,
  0xcc, 0x65, 0xce, 0x3d, 0x67, 0x04, 0x9f, 0x3d, 0x26, 0x89, 0xe9, 0xbd,
  0x38, 0xad, 0x65, 0xbe, 0xb2, 0x99, 0x12, 0x3e, 0xea, 0xc3, 0x91, 0x3d,
  0x0a, 0x29, 0x67, 0x3e, 0x43, 0xe4, 0xf5, 0x3b, 0x4f, 0x7c, 0x6c, 0x3e,
  0x3c, 0xc6, 0x32, 0xbd, 0x6a, 0x93, 0xc1, 0x3c, 0xa3, 0xa4, 0xdd, 0xbe,
  0x0e, 0x03, 0xb2, 0x3c, 0x1c, 0x5a, 0x34, 0x3d, 0x80, 0xf2, 0xa1, 0x3e,
  0xf0, 0x83, 0x9c, 0xbd, 0xed, 0xa5, 0xcb, 0x3b, 0x30, 0x58, 0xf8, 0xbd,
  0x22, 0xee, 0x4b, 0xbb, 0xae, 0xd2, 0x0e, 0x3c, 0x35, 0xa6, 0xd4, 0x3d,
  0x10, 0xa0, 0x74, 0x3d, 0x99, 0xc8, 0xd8, 0x3c, 0x68, 0xae, 0x0a, 0xbe,
  0xfe, 0xd8, 0x77, 0x3d, 0xcf, 0x4a, 0xb0, 0xbc, 0x3a, 0xa5, 0xf7, 0xbd,
  0x52, 0x58, 0xc3, 0xbd, 0x4c, 0xc0, 0x0c, 0x3d, 0x6c, 0x6d, 0x45, 0x3c,
  0xb1, 0xe8, 0x59, 0x3e, 0x94, 0x24, 0xeb, 0x3d, 0x9e, 0x4c, 0x86, 0xbd,
  0x92, 0xe0, 0x79, 0xbe, 0xe0, 0x3d, 0x31, 0x3d, 0xaa, 0x4b, 0x97, 0x3e,
  0xe9, 0xc3, 0xfb, 0xbd, 0xae, 0xfa, 0x89, 0x3d, 0x6c, 0xb1, 0x86, 0x3e,
  0x10, 0x59, 0x15, 0x3d, 0xb9, 0x68, 0xee, 0xbd, 0x57, 0xb0, 0x1c, 0xbd,
  0xfb, 0x1a, 0xe4, 0x3e, 0x91, 0x30, 0x11, 0xbd, 0x15, 0x77, 0xc2, 0xbc,
  0x85, 0xb7, 0x41, 0xbe, 0x87, 0x90, 0x7a, 0x3d, 0x9c, 0x7f, 0x29, 0xbe,
  0xb1, 0x85, 0x16, 0xbe, 0x96, 0xb5, 0xd2, 0xbe, 0x73, 0xb9, 0x10, 0x3e,
  0xb6, 0xb1, 0xbe, 0xbd, 0x4a, 0x45, 0x88, 0xbe, 0xa6, 0xda, 0xf2, 0x3e,
  0x5f, 0xb1, 0x7d, 0x3e, 0x10, 0x5e, 0xab, 0x3e, 0x3c, 0xd0, 0xc1, 0x3e,
  0x9a, 0xc5, 0x27, 0xbe, 0x10, 0x62, 0xb4, 0x3e, 0xb1, 0xf3, 0x08, 0xbf,
  0xd3, 0x95, 0x28, 0x3c, 0x89, 0x15, 0x75, 0xbe, 0x9b, 0xe8, 0x9d, 0x3d,
  0x3e, 0x1b, 0x4c, 0xbe, 0xd4, 0x98, 0x65, 0xbe, 0x1e, 0x8a, 0xdb, 0xbe,
  0x91, 0xf3, 0x59, 0x3e, 0x6e, 0xe5, 0x5f, 0x3d, 0x43, 0x32, 0x25, 0xbf,
  0x3d, 0x94, 0xde, 0x3d, 0x1b, 0xbc, 0x65, 0x3e, 0xce, 0x0a, 0x75, 0x3e,
  0x45, 0x65, 0x0e, 0x3e, 0x95, 0x96, 0x2a, 0xbe, 0x10, 0xa2, 0xc9, 0x3e,
  0xda, 0xf3, 0xc7, 0xbe, 0x1e, 0x26, 0x94, 0x3e, 0xe7, 0xdc, 0x6c, 0x3e,
  0x87, 0x75, 0x86, 0xbe, 0x7c, 0xa3, 0xca, 0x3d, 0xa5, 0x4e, 0xd1, 0xbd,
  0xde, 0xb5, 0xae, 0xbd, 0xbf, 0xbb, 0x91, 0xbd, 0x12, 0xf1, 0x00, 0xbd,
  0x48, 0xe1, 0x69, 0x3d, 0x1c, 0x16, 0x8b, 0x3e, 0x4a, 0xfe, 0xff, 0xff,
  0x10, 0x00, 0x00, 0x00, 0x05, 0x00, 0x00, 0x00, 0x14, 0x00, 0x00, 0x00,
  0x2c, 0x00, 0x00, 0x00, 0x02, 0x00, 0x00, 0x00, 0x10, 0x00, 0x00, 0x00,
  0x70, 0x00, 0x00, 0x00, 0x17, 0x00, 0x00, 0x00, 0x73, 0x65, 0x71, 0x75,
  0x65, 0x6e, 0x74, 0x69, 0x61, 0x6c, 0x2f, 0x64, 0x65, 0x6e, 0x73, 0x65,
  0x2f, 0x4d, 0x61, 0x74, 0x4d, 0x75, 0x6c, 0x00, 0x38, 0xfe, 0xff, 0xff,
  0x2e, 0xff, 0xff, 0xff, 0x04, 0x00, 0x00, 0x00, 0x08, 0x00, 0x00, 0x00,
  0xff, 0xff, 0xff, 0xff, 0x70, 0x00, 0x00, 0x00, 0x00, 0x00, 0x0e, 0x00,
  0x18, 0x00, 0x08, 0x00, 0x07, 0x00, 0x0c, 0x00, 0x10, 0x00, 0x14, 0x00,
  0x0e, 0x00, 0x00, 0x00, 0x00, 0x00, 0x00, 0x02, 0x10, 0x00, 0x00, 0x00,
  0x04, 0x00, 0x00, 0x00, 0x10, 0x00, 0x00, 0x00, 0x2c, 0x00, 0x00, 0x00,
  0x01, 0x00, 0x00, 0x00, 0x02, 0x00, 0x00, 0x00, 0x18, 0x00, 0x00, 0x00,
  0x73, 0x65, 0x71, 0x75, 0x65, 0x6e, 0x74, 0x69, 0x61, 0x6c, 0x2f, 0x66,
  0x6c, 0x61, 0x74, 0x74, 0x65, 0x6e, 0x2f, 0x43, 0x6f, 0x6e, 0x73, 0x74,
  0x00, 0x00, 0x00, 0x00, 0xa0, 0xfe, 0xff, 0xff, 0x96, 0xff, 0xff, 0xff,
  0x04, 0x00, 0x00, 0x00, 0x0c, 0x00, 0x00, 0x00, 0x55, 0x76, 0xeb, 0xbf,
  0xf1, 0xb1, 0xfc, 0x3f, 0xd3, 0x6f, 0x9b, 0xbf, 0x0a, 0xff, 0xff, 0xff,
  0x10, 0x00, 0x00, 0x00, 0x03, 0x00, 0x00, 0x00, 0x10, 0x00, 0x00, 0x00,
  0x3c, 0x00, 0x00, 0x00, 0x01, 0x00, 0x00, 0x00, 0x03, 0x00, 0x00, 0x00,
  0x29, 0x00, 0x00, 0x00, 0x73, 0x65, 0x71, 0x75, 0x65, 0x6e, 0x74, 0x69,
  0x61, 0x6c, 0x2f, 0x64, 0x65, 0x6e, 0x73, 0x65, 0x5f, 0x31, 0x2f, 0x42,
  0x69, 0x61, 0x73, 0x41, 0x64, 0x64, 0x2f, 0x52, 0x65, 0x61, 0x64, 0x56,
  0x61, 0x72, 0x69, 0x61, 0x62, 0x6c, 0x65, 0x4f, 0x70, 0x00, 0x00, 0x00,
  0x60, 0xff, 0xff, 0xff, 0x00, 0x00, 0x06, 0x00, 0x08, 0x00, 0x04, 0x00,
  0x06, 0x00, 0x00, 0x00, 0x04, 0x00, 0x00, 0x00, 0x40, 0x00, 0x00, 0x00,
  0x64, 0x15, 0x87, 0xbf, 0x3f, 0xcd, 0x71, 0xbe, 0xac, 0x86, 0xf4, 0xbe,
  0xfb, 0xd1, 0xb2, 0xbf, 0x73, 0x8e, 0xb4, 0x3f, 0x85, 0xbc, 0x1f, 0x40,
  0xe8, 0x3f, 0x66, 0xbe, 0x48, 0x12, 0xf1, 0x3f, 0xf0, 0x72, 0x97, 0xbc,
  0x50, 0x9c, 0xc8, 0xbe, 0x9d, 0x3e, 0x50, 0x3f, 0x33, 0x9f, 0x58, 0x3f,
  0x6a, 0x15, 0x04, 0xbf, 0x87, 0xd5, 0xdc, 0xbf, 0x7a, 0x8c, 0xef, 0x3f,
  0xc6, 0x0a, 0xda, 0x3f, 0xae, 0xff, 0xff, 0xff, 0x10, 0x00, 0x00, 0x00,
  0x02, 0x00, 0x00, 0x00, 0x10, 0x00, 0x00, 0x00, 0x3c, 0x00, 0x00, 0x00,
  0x01, 0x00, 0x00, 0x00, 0x10, 0x00, 0x00, 0x00, 0x27, 0x00, 0x00, 0x00,
  0x73, 0x65, 0x71, 0x75, 0x65, 0x6e, 0x74, 0x69, 0x61, 0x6c, 0x2f, 0x64,
  0x65, 0x6e, 0x73, 0x65, 0x2f, 0x42, 0x69, 0x61, 0x73, 0x41, 0x64, 0x64,
  0x2f, 0x52, 0x65, 0x61, 0x64, 0x56, 0x61, 0x72, 0x69, 0x61, 0x62, 0x6c,
  0x65, 0x4f, 0x70, 0x00, 0x04, 0x00, 0x06, 0x00, 0x04, 0x00, 0x00, 0x00,
  0x00, 0x00, 0x0e, 0x00, 0x14, 0x00, 0x04, 0x00, 0x00, 0x00, 0x08, 0x00,
  0x0c, 0x00, 0x10, 0x00, 0x0e, 0x00, 0x00, 0x00, 0x10, 0x00, 0x00, 0x00,
  0x01, 0x00, 0x00, 0x00, 0x1c, 0x00, 0x00, 0x00, 0x2c, 0x00, 0x00, 0x00,
  0x04, 0x00, 0x00, 0x00, 0x01, 0x00, 0x00, 0x00, 0x40, 0x00, 0x00, 0x00,
  0x03, 0x00, 0x00, 0x00, 0x01, 0x00, 0x00, 0x00, 0x0c, 0x00, 0x00, 0x00,
  0x63, 0x6f, 0x6e, 0x76, 0x32, 0x64, 0x5f, 0x69, 0x6e, 0x70, 0x75, 0x74,
  0x00, 0x00, 0x00, 0x00, 0xfc, 0xff, 0xff, 0xff, 0x04, 0x00, 0x04, 0x00,
  0x04, 0x00, 0x00, 0x00
};


unsigned int model_tflite_len = 12316;// Fill the int in `src/model.cc` here